{
  "version": "1.0",
  "truncation": null,
  "padding": null,
  "added_tokens": [
    {
      "id": 0,
      "content": "[PAD]",
      "single_word": false,
      "lstrip": false,
      "rstrip": false,
      "normalized": false,
      "special": true
    },
    {
      "id": 100,
      "content": "[UNK]",
      "single_word": false,
      "lstrip": false,
      "rstrip": false,
      "normalized": false,
      "special": true
    },
    {
      "id": 101,
      "content": "[CLS]",
      "single_word": false,
      "lstrip": false,
      "rstrip": false,
      "normalized": false,
      "special": true
    },
    {
      "id": 102,
      "content": "[SEP]",
      "single_word": false,
      "lstrip": false,
      "rstrip": false,
      "normalized": false,
      "special": true
    },
    {
      "id": 103,
      "content": "[MASK]",
      "single_word": false,
      "lstrip": false,
      "rstrip": false,
      "normalized": false,
      "special": true
    },
    {
      "id": 139,
      "content": "B",
      "single_word": false,
      "lstrip": false,
      "rstrip": false,
      "normalized": true,
      "special": false
    },
    {
      "id": 140,
      "content": "C",
      "single_word": false,
      "lstrip": false,
      "rstrip": false,
      "normalized": true,
      "special": false
    },
    {
      "id": 142,
      "content": "E",
      "single_word": false,
      "lstrip": false,
      "rstrip": false,
      "normalized": true,
      "special": false
    },
    {
      "id": 144,
      "content": "G",
      "single_word": false,
      "lstrip": false,
      "rstrip": false,
      "normalized": true,
      "special": false
    },
    {
      "id": 147,
      "content": "J",
      "single_word": false,
      "lstrip": false,
      "rstrip": false,
      "normalized": true,
      "special": false
    },
    {
      "id": 153,
      "content": "P",
      "single_word": false,
      "lstrip": false,
      "rstrip": false,
      "normalized": true,
      "special": false
    },
    {
      "id": 175,
      "content": "f",
      "single_word": false,
      "lstrip": false,
      "rstrip": false,
      "normalized": true,
      "special": false
    },
    {
      "id": 185,
      "content": "p",
      "single_word": false,
      "lstrip": false,
      "rstrip": false,
      "normalized": true,
      "special": false
    },
    {
      "id": 191,
      "content": "v",
      "single_word": false,
      "lstrip": false,
      "rstrip": false,
      "normalized": true,
      "special": false
    },
    {
      "id": 192,
      "content": "w",
      "single_word": false,
      "lstrip": false,
      "rstrip": false,
      "normalized": true,
      "special": false
    },
    {
      "id": 1103,
      "content": "the",
      "single_word": false,
      "lstrip": false,
      "rstrip": false,
      "normalized": true,
      "special": false
    },
    {
      "id": 1104,
      "content": "of",
      "single_word": false,
      "lstrip": false,
      "rstrip": false,
      "normalized": true,
      "special": false
    },
    {
      "id": 1105,
      "content": "and",
      "single_word": false,
      "lstrip": false,
      "rstrip": false,
      "normalized": true,
      "special": false
    },
    {
      "id": 1107,
      "content": "in",
      "single_word": false,
      "lstrip": false,
      "rstrip": false,
      "normalized": true,
      "special": false
    },
    {
      "id": 1109,
      "content": "The",
      "single_word": false,
      "lstrip": false,
      "rstrip": false,
      "normalized": true,
      "special": false
    },
    {
      "id": 1111,
      "content": "for",
      "single_word": false,
      "lstrip": false,
      "rstrip": false,
      "normalized": true,
      "special": false
    },
    {
      "id": 1112,
      "content": "as",
      "single_word": false,
      "lstrip": false,
      "rstrip": false,
      "normalized": true,
      "special": false
    },
    {
      "id": 1113,
      "content": "on",
      "single_word": false,
      "lstrip": false,
      "rstrip": false,
      "normalized": true,
      "special": false
    },
    {
      "id": 1120,
      "content": "at",
      "single_word": false,
      "lstrip": false,
      "rstrip": false,
      "normalized": true,
      "special": false
    },
    {
      "id": 1122,
      "content": "it",
      "single_word": false,
      "lstrip": false,
      "rstrip": false,
      "normalized": true,
      "special": false
    },
    {
      "id": 1137,
      "content": "or",
      "single_word": false,
      "lstrip": false,
      "rstrip": false,
      "normalized": true,
      "special": false
    },
    {
      "id": 1150,
      "content": "who",
      "single_word": false,
      "lstrip": false,
      "rstrip": false,
      "normalized": true,
      "special": false
    },
    {
      "id": 1155,
      "content": "all",
      "single_word": false,
      "lstrip": false,
      "rstrip": false,
      "normalized": true,
      "special": false
    },
    {
      "id": 1222,
      "content": "against",
      "single_word": false,
      "lstrip": false,
      "rstrip": false,
      "normalized": true,
      "special": false
    },
    {
      "id": 1239,
      "content": "University",
      "single_word": false,
      "lstrip": false,
      "rstrip": false,
      "normalized": true,
      "special": false
    },
    {
      "id": 1260,
      "content": "de",
      "single_word": false,
      "lstrip": false,
      "rstrip": false,
      "normalized": true,
      "special": false
    },
    {
      "id": 1291,
      "content": "World",
      "single_word": false,
      "lstrip": false,
      "rstrip": false,
      "normalized": true,
      "special": false
    },
    {
      "id": 1305,
      "content": "National",
      "single_word": false,
      "lstrip": false,
      "rstrip": false,
      "normalized": true,
      "special": false
    },
    {
      "id": 1323,
      "content": "School",
      "single_word": false,
      "lstrip": false,
      "rstrip": false,
      "normalized": true,
      "special": false
    },
    {
      "id": 1375,
      "content": "South",
      "single_word": false,
      "lstrip": false,
      "rstrip": false,
      "normalized": true,
      "special": false
    },
    {
      "id": 1397,
      "content": "next",
      "single_word": false,
      "lstrip": false,
      "rstrip": false,
      "normalized": true,
      "special": false
    },
    {
      "id": 1398,
      "content": "All",
      "single_word": false,
      "lstrip": false,
      "rstrip": false,
      "normalized": true,
      "special": false
    },
    {
      "id": 1423,
      "content": "single",
      "single_word": false,
      "lstrip": false,
      "rstrip": false,
      "normalized": true,
      "special": false
    },
    {
      "id": 1456,
      "content": "North",
      "single_word": false,
      "lstrip": false,
      "rstrip": false,
      "normalized": true,
      "special": false
    },
    {
      "id": 1494,
      "content": "help",
      "single_word": false,
      "lstrip": false,
      "rstrip": false,
      "normalized": true,
      "special": false
    },
    {
      "id": 1531,
      "content": "College",
      "single_word": false,
      "lstrip": false,
      "rstrip": false,
      "normalized": true,
      "special": false
    },
    {
      "id": 1619,
      "content": "support",
      "single_word": false,
      "lstrip": false,
      "rstrip": false,
      "normalized": true,
      "special": false
    },
    {
      "id": 1646,
      "content": "US",
      "single_word": false,
      "lstrip": false,
      "rstrip": false,
      "normalized": true,
      "special": false
    },
    {
      "id": 1652,
      "content": "England",
      "single_word": false,
      "lstrip": false,
      "rstrip": false,
      "normalized": true,
      "special": false
    },
    {
      "id": 1735,
      "content": "European",
      "single_word": false,
      "lstrip": false,
      "rstrip": false,
      "normalized": true,
      "special": false
    },
    {
      "id": 1769,
      "content": "human",
      "single_word": false,
      "lstrip": false,
      "rstrip": false,
      "normalized": true,
      "special": false
    },
    {
      "id": 1787,
      "content": "Royal",
      "single_word": false,
      "lstrip": false,
      "rstrip": false,
      "normalized": true,
      "special": false
    },
    {
      "id": 1791,
      "content": "Association",
      "single_word": false,
      "lstrip": false,
      "rstrip": false,
      "normalized": true,
      "special": false
    },
    {
      "id": 1826,
      "content": "services",
      "single_word": false,
      "lstrip": false,
      "rstrip": false,
      "normalized": true,
      "special": false
    },
    {
      "id": 1836,
      "content": "release",
      "single_word": false,
      "lstrip": false,
      "rstrip": false,
      "normalized": true,
      "special": false
    },
    {
      "id": 1922,
      "content": "Chinese",
      "single_word": false,
      "lstrip": false,
      "rstrip": false,
      "normalized": true,
      "special": false
    },
    {
      "id": 1933,
      "content": "project",
      "single_word": false,
      "lstrip": false,
      "rstrip": false,
      "normalized": true,
      "special": false
    },
    {
      "id": 1945,
      "content": "Center",
      "single_word": false,
      "lstrip": false,
      "rstrip": false,
      "normalized": true,
      "special": false
    },
    {
      "id": 1951,
      "content": "Department",
      "single_word": false,
      "lstrip": false,
      "rstrip": false,
      "normalized": true,
      "special": false
    },
    {
      "id": 1975,
      "content": "China",
      "single_word": false,
      "lstrip": false,
      "rstrip": false,
      "normalized": true,
      "special": false
    },
    {
      "id": 1992,
      "content": "big",
      "single_word": false,
      "lstrip": false,
      "rstrip": false,
      "normalized": true,
      "special": false
    },
    {
      "id": 1993,
      "content": "UK",
      "single_word": false,
      "lstrip": false,
      "rstrip": false,
      "normalized": true,
      "special": false
    },
    {
      "id": 2015,
      "content": "Society",
      "single_word": false,
      "lstrip": false,
      "rstrip": false,
      "normalized": true,
      "special": false
    },
    {
      "id": 2024,
      "content": "Institute",
      "single_word": false,
      "lstrip": false,
      "rstrip": false,
      "normalized": true,
      "special": false
    },
    {
      "id": 2025,
      "content": "study",
      "single_word": false,
      "lstrip": false,
      "rstrip": false,
      "normalized": true,
      "special": false
    },
    {
      "id": 2127,
      "content": "Academy",
      "single_word": false,
      "lstrip": false,
      "rstrip": false,
      "normalized": true,
      "special": false
    },
    {
      "id": 2169,
      "content": "Italian",
      "single_word": false,
      "lstrip": false,
      "rstrip": false,
      "normalized": true,
      "special": false
    },
    {
      "id": 2170,
      "content": "African",
      "single_word": false,
      "lstrip": false,
      "rstrip": false,
      "normalized": true,
      "special": false
    },
    {
      "id": 2233,
      "content": "data",
      "single_word": false,
      "lstrip": false,
      "rstrip": false,
      "normalized": true,
      "special": false
    },
    {
      "id": 2250,
      "content": "Republic",
      "single_word": false,
      "lstrip": false,
      "rstrip": false,
      "normalized": true,
      "special": false
    },
    {
      "id": 2268,
      "content": "Man",
      "single_word": false,
      "lstrip": false,
      "rstrip": false,
      "normalized": true,
      "special": false
    },
    {
      "id": 2281,
      "content": "novel",
      "single_word": false,
      "lstrip": false,
      "rstrip": false,
      "normalized": true,
      "special": false
    },
    {
      "id": 2307,
      "content": "Second",
      "single_word": false,
      "lstrip": false,
      "rstrip": false,
      "normalized": true,
      "special": false
    },
    {
      "id": 2341,
      "content": "Committee",
      "single_word": false,
      "lstrip": false,
      "rstrip": false,
      "normalized": true,
      "special": false
    },
    {
      "id": 2393,
      "content": "al",
      "single_word": false,
      "lstrip": false,
      "rstrip": false,
      "normalized": true,
      "special": false
    },
    {
      "id": 2401,
      "content": "structure",
      "single_word": false,
      "lstrip": false,
      "rstrip": false,
      "normalized": true,
      "special": false
    },
    {
      "id": 2444,
      "content": "Science",
      "single_word": false,
      "lstrip": false,
      "rstrip": false,
      "normalized": true,
      "special": false
    },
    {
      "id": 2563,
      "content": "People",
      "single_word": false,
      "lstrip": false,
      "rstrip": false,
      "normalized": true,
      "special": false
    },
    {
      "id": 2579,
      "content": "Northern",
      "single_word": false,
      "lstrip": false,
      "rstrip": false,
      "normalized": true,
      "special": false
    },
    {
      "id": 2592,
      "content": "report",
      "single_word": false,
      "lstrip": false,
      "rstrip": false,
      "normalized": true,
      "special": false
    },
    {
      "id": 2710,
      "content": "Public",
      "single_word": false,
      "lstrip": false,
      "rstrip": false,
      "normalized": true,
      "special": false
    },
    {
      "id": 2713,
      "content": "Research",
      "single_word": false,
      "lstrip": false,
      "rstrip": false,
      "normalized": true,
      "special": false
    },
    {
      "id": 2722,
      "content": "Spain",
      "single_word": false,
      "lstrip": false,
      "rstrip": false,
      "normalized": true,
      "special": false
    },
    {
      "id": 2765,
      "content": "cell",
      "single_word": false,
      "lstrip": false,
      "rstrip": false,
      "normalized": true,
      "special": false
    },
    {
      "id": 2797,
      "content": "drive",
      "single_word": false,
      "lstrip": false,
      "rstrip": false,
      "normalized": true,
      "special": false
    },
    {
      "id": 2820,
      "content": "situation",
      "single_word": false,
      "lstrip": false,
      "rstrip": false,
      "normalized": true,
      "special": false
    },
    {
      "id": 2827,
      "content": "Commission",
      "single_word": false,
      "lstrip": false,
      "rstrip": false,
      "normalized": true,
      "special": false
    },
    {
      "id": 2838,
      "content": "expression",
      "single_word": false,
      "lstrip": false,
      "rstrip": false,
      "normalized": true,
      "special": false
    },
    {
      "id": 2950,
      "content": "Bank",
      "single_word": false,
      "lstrip": false,
      "rstrip": false,
      "normalized": true,
      "special": false
    },
    {
      "id": 2961,
      "content": "Centre",
      "single_word": false,
      "lstrip": false,
      "rstrip": false,
      "normalized": true,
      "special": false
    },
    {
      "id": 2974,
      "content": "Foundation",
      "single_word": false,
      "lstrip": false,
      "rstrip": false,
      "normalized": true,
      "special": false
    },
    {
      "id": 3060,
      "content": "Office",
      "single_word": false,
      "lstrip": false,
      "rstrip": false,
      "normalized": true,
      "special": false
    },
    {
      "id": 3084,
      "content": "et",
      "single_word": false,
      "lstrip": false,
      "rstrip": false,
      "normalized": true,
      "special": false
    },
    {
      "id": 3145,
      "content": "Civil",
      "single_word": false,
      "lstrip": false,
      "rstrip": false,
      "normalized": true,
      "special": false
    },
    {
      "id": 3203,
      "content": "projects",
      "single_word": false,
      "lstrip": false,
      "rstrip": false,
      "normalized": true,
      "special": false
    },
    {
      "id": 3225,
      "content": "Health",
      "single_word": false,
      "lstrip": false,
      "rstrip": false,
      "normalized": true,
      "special": false
    },
    {
      "id": 3254,
      "content": "com",
      "single_word": false,
      "lstrip": false,
      "rstrip": false,
      "normalized": true,
      "special": false
    },
    {
      "id": 3283,
      "content": "master",
      "single_word": false,
      "lstrip": false,
      "rstrip": false,
      "normalized": true,
      "special": false
    },
    {
      "id": 3353,
      "content": "Open",
      "single_word": false,
      "lstrip": false,
      "rstrip": false,
      "normalized": true,
      "special": false
    },
    {
      "id": 3355,
      "content": "Hospital",
      "single_word": false,
      "lstrip": false,
      "rstrip": false,
      "normalized": true,
      "special": false
    },
    {
      "id": 3364,
      "content": "Santa",
      "single_word": false,
      "lstrip": false,
      "rstrip": false,
      "normalized": true,
      "special": false
    },
    {
      "id": 3397,
      "content": "academic",
      "single_word": false,
      "lstrip": false,
      "rstrip": false,
      "normalized": true,
      "special": false
    },
    {
      "id": 3424,
      "content": "Ministry",
      "single_word": false,
      "lstrip": false,
      "rstrip": false,
      "normalized": true,
      "special": false
    },
    {
      "id": 3482,
      "content": "platform",
      "single_word": false,
      "lstrip": false,
      "rstrip": false,
      "normalized": true,
      "special": false
    },
    {
      "id": 3622,
      "content": "analysis",
      "single_word": false,
      "lstrip": false,
      "rstrip": false,
      "normalized": true,
      "special": false
    },
    {
      "id": 3756,
      "content": "reports",
      "single_word": false,
      "lstrip": false,
      "rstrip": false,
      "normalized": true,
      "special": false
    },
    {
      "id": 3875,
      "content": "Medical",
      "single_word": false,
      "lstrip": false,
      "rstrip": false,
      "normalized": true,
      "special": false
    },
    {
      "id": 3910,
      "content": "System",
      "single_word": false,
      "lstrip": false,
      "rstrip": false,
      "normalized": true,
      "special": false
    },
    {
      "id": 3947,
      "content": "Korean",
      "single_word": false,
      "lstrip": false,
      "rstrip": false,
      "normalized": true,
      "special": false
    },
    {
      "id": 3979,
      "content": "resources",
      "single_word": false,
      "lstrip": false,
      "rstrip": false,
      "normalized": true,
      "special": false
    },
    {
      "id": 3981,
      "content": "principal",
      "single_word": false,
      "lstrip": false,
      "rstrip": false,
      "normalized": true,
      "special": false
    },
    {
      "id": 4035,
      "content": "en",
      "single_word": false,
      "lstrip": false,
      "rstrip": false,
      "normalized": true,
      "special": false
    },
    {
      "id": 4042,
      "content": "Project",
      "single_word": false,
      "lstrip": false,
      "rstrip": false,
      "normalized": true,
      "special": false
    },
    {
      "id": 4052,
      "content": "Sciences",
      "single_word": false,
      "lstrip": false,
      "rstrip": false,
      "normalized": true,
      "special": false
    },
    {
      "id": 4150,
      "content": "Ray",
      "single_word": false,
      "lstrip": false,
      "rstrip": false,
      "normalized": true,
      "special": false
    },
    {
      "id": 4182,
      "content": "cancer",
      "single_word": false,
      "lstrip": false,
      "rstrip": false,
      "normalized": true,
      "special": false
    },
    {
      "id": 4219,
      "content": "Information",
      "single_word": false,
      "lstrip": false,
      "rstrip": false,
      "normalized": true,
      "special": false
    },
    {
      "id": 4243,
      "content": "Human",
      "single_word": false,
      "lstrip": false,
      "rstrip": false,
      "normalized": true,
      "special": false
    },
    {
      "id": 4246,
      "content": "Kim",
      "single_word": false,
      "lstrip": false,
      "rstrip": false,
      "normalized": true,
      "special": false
    },
    {
      "id": 4265,
      "content": "global",
      "single_word": false,
      "lstrip": false,
      "rstrip": false,
      "normalized": true,
      "special": false
    },
    {
      "id": 4345,
      "content": "Gordon",
      "single_word": false,
      "lstrip": false,
      "rstrip": false,
      "normalized": true,
      "special": false
    },
    {
      "id": 4425,
      "content": "Clark",
      "single_word": false,
      "lstrip": false,
      "rstrip": false,
      "normalized": true,
      "special": false
    },
    {
      "id": 4496,
      "content": "Census",
      "single_word": false,
      "lstrip": false,
      "rstrip": false,
      "normalized": true,
      "special": false
    },
    {
      "id": 4520,
      "content": "map",
      "single_word": false,
      "lstrip": false,
      "rstrip": false,
      "normalized": true,
      "special": false
    },
    {
      "id": 4592,
      "content": "protein",
      "single_word": false,
      "lstrip": false,
      "rstrip": false,
      "normalized": true,
      "special": false
    },
    {
      "id": 4614,
      "content": "Swiss",
      "single_word": false,
      "lstrip": false,
      "rstrip": false,
      "normalized": true,
      "special": false
    },
    {
      "id": 4683,
      "content": "applications",
      "single_word": false,
      "lstrip": false,
      "rstrip": false,
      "normalized": true,
      "special": false
    },
    {
      "id": 4961,
      "content": "documents",
      "single_word": false,
      "lstrip": false,
      "rstrip": false,
      "normalized": true,
      "special": false
    },
    {
      "id": 5101,
      "content": "string",
      "single_word": false,
      "lstrip": false,
      "rstrip": false,
      "normalized": true,
      "special": false
    },
    {
      "id": 5255,
      "content": "Li",
      "single_word": false,
      "lstrip": false,
      "rstrip": false,
      "normalized": true,
      "special": false
    },
    {
      "id": 5313,
      "content": "Source",
      "single_word": false,
      "lstrip": false,
      "rstrip": false,
      "normalized": true,
      "special": false
    },
    {
      "id": 5357,
      "content": "Global",
      "single_word": false,
      "lstrip": false,
      "rstrip": false,
      "normalized": true,
      "special": false
    },
    {
      "id": 5565,
      "content": "gene",
      "single_word": false,
      "lstrip": false,
      "rstrip": false,
      "normalized": true,
      "special": false
    },
    {
      "id": 5643,
      "content": "Alliance",
      "single_word": false,
      "lstrip": false,
      "rstrip": false,
      "normalized": true,
      "special": false
    },
    {
      "id": 5734,
      "content": "Medicine",
      "single_word": false,
      "lstrip": false,
      "rstrip": false,
      "normalized": true,
      "special": false
    },
    {
      "id": 6115,
      "content": "Unit",
      "single_word": false,
      "lstrip": false,
      "rstrip": false,
      "normalized": true,
      "special": false
    },
    {
      "id": 6240,
      "content": "Natural",
      "single_word": false,
      "lstrip": false,
      "rstrip": false,
      "normalized": true,
      "special": false
    },
    {
      "id": 6303,
      "content": "sharing",
      "single_word": false,
      "lstrip": false,
      "rstrip": false,
      "normalized": true,
      "special": false
    },
    {
      "id": 6342,
      "content": "Control",
      "single_word": false,
      "lstrip": false,
      "rstrip": false,
      "normalized": true,
      "special": false
    },
    {
      "id": 6373,
      "content": "Short",
      "single_word": false,
      "lstrip": false,
      "rstrip": false,
      "normalized": true,
      "special": false
    },
    {
      "id": 6475,
      "content": "Systems",
      "single_word": false,
      "lstrip": false,
      "rstrip": false,
      "normalized": true,
      "special": false
    },
    {
      "id": 6534,
      "content": "Organization",
      "single_word": false,
      "lstrip": false,
      "rstrip": false,
      "normalized": true,
      "special": false
    },
    {
      "id": 6605,
      "content": "Action",
      "single_word": false,
      "lstrip": false,
      "rstrip": false,
      "normalized": true,
      "special": false
    },
    {
      "id": 6671,
      "content": "Beijing",
      "single_word": false,
      "lstrip": false,
      "rstrip": false,
      "normalized": true,
      "special": false
    },
    {
      "id": 7001,
      "content": "www",
      "single_word": false,
      "lstrip": false,
      "rstrip": false,
      "normalized": true,
      "special": false
    },
    {
      "id": 7014,
      "content": "Wang",
      "single_word": false,
      "lstrip": false,
      "rstrip": false,
      "normalized": true,
      "special": false
    },
    {
      "id": 7085,
      "content": "Ma",
      "single_word": false,
      "lstrip": false,
      "rstrip": false,
      "normalized": true,
      "special": false
    },
    {
      "id": 7154,
      "content": "Data",
      "single_word": false,
      "lstrip": false,
      "rstrip": false,
      "normalized": true,
      "special": false
    },
    {
      "id": 7191,
      "content": "initiative",
      "single_word": false,
      "lstrip": false,
      "rstrip": false,
      "normalized": true,
      "special": false
    },
    {
      "id": 7448,
      "content": "index",
      "single_word": false,
      "lstrip": false,
      "rstrip": false,
      "normalized": true,
      "special": false
    },
    {
      "id": 7638,
      "content": "Hughes",
      "single_word": false,
      "lstrip": false,
      "rstrip": false,
      "normalized": true,
      "special": false
    },
    {
      "id": 7895,
      "content": "Foster",
      "single_word": false,
      "lstrip": false,
      "rstrip": false,
      "normalized": true,
      "special": false
    },
    {
      "id": 7918,
      "content": "tissue",
      "single_word": false,
      "lstrip": false,
      "rstrip": false,
      "normalized": true,
      "special": false
    },
    {
      "id": 7942,
      "content": "virus",
      "single_word": false,
      "lstrip": false,
      "rstrip": false,
      "normalized": true,
      "special": false
    },
    {
      "id": 7949,
      "content": "Clarke",
      "single_word": false,
      "lstrip": false,
      "rstrip": false,
      "normalized": true,
      "special": false
    },
    {
      "id": 7962,
      "content": "Shanghai",
      "single_word": false,
      "lstrip": false,
      "rstrip": false,
      "normalized": true,
      "special": false
    },
    {
      "id": 7986,
      "content": "Google",
      "single_word": false,
      "lstrip": false,
      "rstrip": false,
      "normalized": true,
      "special": false
    },
    {
      "id": 8063,
      "content": "Protection",
      "single_word": false,
      "lstrip": false,
      "rstrip": false,
      "normalized": true,
      "special": false
    },
    {
      "id": 8131,
      "content": "diseases",
      "single_word": false,
      "lstrip": false,
      "rstrip": false,
      "normalized": true,
      "special": false
    },
    {
      "id": 8188,
      "content": "pride",
      "single_word": false,
      "lstrip": false,
      "rstrip": false,
      "normalized": true,
      "special": false
    },
    {
      "id": 8353,
      "content": "Single",
      "single_word": false,
      "lstrip": false,
      "rstrip": false,
      "normalized": true,
      "special": false
    },
    {
      "id": 8396,
      "content": "Care",
      "single_word": false,
      "lstrip": false,
      "rstrip": false,
      "normalized": true,
      "special": false
    },
    {
      "id": 8413,
      "content": "http",
      "single_word": false,
      "lstrip": false,
      "rstrip": false,
      "normalized": true,
      "special": false
    },
    {
      "id": 8539,
      "content": "database",
      "single_word": false,
      "lstrip": false,
      "rstrip": false,
      "normalized": true,
      "special": false
    },
    {
      "id": 8704,
      "content": "Support",
      "single_word": false,
      "lstrip": false,
      "rstrip": false,
      "normalized": true,
      "special": false
    },
    {
      "id": 8787,
      "content": "Scientific",
      "single_word": false,
      "lstrip": false,
      "rstrip": false,
      "normalized": true,
      "special": false
    },
    {
      "id": 8801,
      "content": "Against",
      "single_word": false,
      "lstrip": false,
      "rstrip": false,
      "normalized": true,
      "special": false
    },
    {
      "id": 8891,
      "content": "Laboratory",
      "single_word": false,
      "lstrip": false,
      "rstrip": false,
      "normalized": true,
      "special": false
    },
    {
      "id": 8916,
      "content": "org",
      "single_word": false,
      "lstrip": false,
      "rstrip": false,
      "normalized": true,
      "special": false
    },
    {
      "id": 9059,
      "content": "Web",
      "single_word": false,
      "lstrip": false,
      "rstrip": false,
      "normalized": true,
      "special": false
    },
    {
      "id": 9066,
      "content": "Gene",
      "single_word": false,
      "lstrip": false,
      "rstrip": false,
      "normalized": true,
      "special": false
    },
    {
      "id": 9232,
      "content": "blast",
      "single_word": false,
      "lstrip": false,
      "rstrip": false,
      "normalized": true,
      "special": false
    },
    {
      "id": 9465,
      "content": "doi",
      "single_word": false,
      "lstrip": false,
      "rstrip": false,
      "normalized": true,
      "special": false
    },
    {
      "id": 10028,
      "content": "sequences",
      "single_word": false,
      "lstrip": false,
      "rstrip": false,
      "normalized": true,
      "special": false
    },
    {
      "id": 10055,
      "content": "Hopkins",
      "single_word": false,
      "lstrip": false,
      "rstrip": false,
      "normalized": true,
      "special": false
    },
    {
      "id": 10071,
      "content": "compounds",
      "single_word": false,
      "lstrip": false,
      "rstrip": false,
      "normalized": true,
      "special": false
    },
    {
      "id": 10523,
      "content": "Online",
      "single_word": false,
      "lstrip": false,
      "rstrip": false,
      "normalized": true,
      "special": false
    },
    {
      "id": 10617,
      "content": "Generation",
      "single_word": false,
      "lstrip": false,
      "rstrip": false,
      "normalized": true,
      "special": false
    },
    {
      "id": 10910,
      "content": "Statistics",
      "single_word": false,
      "lstrip": false,
      "rstrip": false,
      "normalized": true,
      "special": false
    },
    {
      "id": 11019,
      "content": "ca",
      "single_word": false,
      "lstrip": false,
      "rstrip": false,
      "normalized": true,
      "special": false
    },
    {
      "id": 11482,
      "content": "provider",
      "single_word": false,
      "lstrip": false,
      "rstrip": false,
      "normalized": true,
      "special": false
    },
    {
      "id": 11558,
      "content": "Cancer",
      "single_word": false,
      "lstrip": false,
      "rstrip": false,
      "normalized": true,
      "special": false
    },
    {
      "id": 11650,
      "content": "immune",
      "single_word": false,
      "lstrip": false,
      "rstrip": false,
      "normalized": true,
      "special": false
    },
    {
      "id": 11673,
      "content": "Johns",
      "single_word": false,
      "lstrip": false,
      "rstrip": false,
      "normalized": true,
      "special": false
    },
    {
      "id": 11763,
      "content": "Species",
      "single_word": false,
      "lstrip": false,
      "rstrip": false,
      "normalized": true,
      "special": false
    },
    {
      "id": 11984,
      "content": "update",
      "single_word": false,
      "lstrip": false,
      "rstrip": false,
      "normalized": true,
      "special": false
    },
    {
      "id": 12109,
      "content": "Davidson",
      "single_word": false,
      "lstrip": false,
      "rstrip": false,
      "normalized": true,
      "special": false
    },
    {
      "id": 12144,
      "content": "Traditional",
      "single_word": false,
      "lstrip": false,
      "rstrip": false,
      "normalized": true,
      "special": false
    },
    {
      "id": 12319,
      "content": "Sterling",
      "single_word": false,
      "lstrip": false,
      "rstrip": false,
      "normalized": true,
      "special": false
    },
    {
      "id": 12406,
      "content": "archive",
      "single_word": false,
      "lstrip": false,
      "rstrip": false,
      "normalized": true,
      "special": false
    },
    {
      "id": 12504,
      "content": "Analysis",
      "single_word": false,
      "lstrip": false,
      "rstrip": false,
      "normalized": true,
      "special": false
    },
    {
      "id": 12647,
      "content": "app",
      "single_word": false,
      "lstrip": false,
      "rstrip": false,
      "normalized": true,
      "special": false
    },
    {
      "id": 12819,
      "content": "Trial",
      "single_word": false,
      "lstrip": false,
      "rstrip": false,
      "normalized": true,
      "special": false
    },
    {
      "id": 12823,
      "content": "Reyes",
      "single_word": false,
      "lstrip": false,
      "rstrip": false,
      "normalized": true,
      "special": false
    },
    {
      "id": 12974,
      "content": "Atlas",
      "single_word": false,
      "lstrip": false,
      "rstrip": false,
      "normalized": true,
      "special": false
    },
    {
      "id": 13279,
      "content": "Jung",
      "single_word": false,
      "lstrip": false,
      "rstrip": false,
      "normalized": true,
      "special": false
    },
    {
      "id": 13508,
      "content": "Initiative",
      "single_word": false,
      "lstrip": false,
      "rstrip": false,
      "normalized": true,
      "special": false
    },
    {
      "id": 13625,
      "content": "Lucia",
      "single_word": false,
      "lstrip": false,
      "rstrip": false,
      "normalized": true,
      "special": false
    },
    {
      "id": 13936,
      "content": "es",
      "single_word": false,
      "lstrip": false,
      "rstrip": false,
      "normalized": true,
      "special": false
    },
    {
      "id": 14056,
      "content": "NC",
      "single_word": false,
      "lstrip": false,
      "rstrip": false,
      "normalized": true,
      "special": false
    },
    {
      "id": 14123,
      "content": "PM",
      "single_word": false,
      "lstrip": false,
      "rstrip": false,
      "normalized": true,
      "special": false
    },
    {
      "id": 14402,
      "content": "cc",
      "single_word": false,
      "lstrip": false,
      "rstrip": false,
      "normalized": true,
      "special": false
    },
    {
      "id": 14557,
      "content": "Lu",
      "single_word": false,
      "lstrip": false,
      "rstrip": false,
      "normalized": true,
      "special": false
    },
    {
      "id": 14749,
      "content": "tissues",
      "single_word": false,
      "lstrip": false,
      "rstrip": false,
      "normalized": true,
      "special": false
    },
    {
      "id": 14837,
      "content": "viral",
      "single_word": false,
      "lstrip": false,
      "rstrip": false,
      "normalized": true,
      "special": false
    },
    {
      "id": 14940,
      "content": "summary",
      "single_word": false,
      "lstrip": false,
      "rstrip": false,
      "normalized": true,
      "special": false
    },
    {
      "id": 15041,
      "content": "Archive",
      "single_word": false,
      "lstrip": false,
      "rstrip": false,
      "normalized": true,
      "special": false
    },
    {
      "id": 15047,
      "content": "Encyclopedia",
      "single_word": false,
      "lstrip": false,
      "rstrip": false,
      "normalized": true,
      "special": false
    },
    {
      "id": 15152,
      "content": "Read",
      "single_word": false,
      "lstrip": false,
      "rstrip": false,
      "normalized": true,
      "special": false
    },
    {
      "id": 15330,
      "content": "Zhou",
      "single_word": false,
      "lstrip": false,
      "rstrip": false,
      "normalized": true,
      "special": false
    },
    {
      "id": 15422,
      "content": "Monaco",
      "single_word": false,
      "lstrip": false,
      "rstrip": false,
      "normalized": true,
      "special": false
    },
    {
      "id": 15519,
      "content": "genome",
      "single_word": false,
      "lstrip": false,
      "rstrip": false,
      "normalized": true,
      "special": false
    },
    {
      "id": 15701,
      "content": "Investigation",
      "single_word": false,
      "lstrip": false,
      "rstrip": false,
      "normalized": true,
      "special": false
    },
    {
      "id": 15919,
      "content": "Host",
      "single_word": false,
      "lstrip": false,
      "rstrip": false,
      "normalized": true,
      "special": false
    },
    {
      "id": 15926,
      "content": "Factor",
      "single_word": false,
      "lstrip": false,
      "rstrip": false,
      "normalized": true,
      "special": false
    },
    {
      "id": 15961,
      "content": "Clinical",
      "single_word": false,
      "lstrip": false,
      "rstrip": false,
      "normalized": true,
      "special": false
    },
    {
      "id": 16083,
      "content": "Kyoto",
      "single_word": false,
      "lstrip": false,
      "rstrip": false,
      "normalized": true,
      "special": false
    },
    {
      "id": 16660,
      "content": "Million",
      "single_word": false,
      "lstrip": false,
      "rstrip": false,
      "normalized": true,
      "special": false
    },
    {
      "id": 16831,
      "content": "Huang",
      "single_word": false,
      "lstrip": false,
      "rstrip": false,
      "normalized": true,
      "special": false
    },
    {
      "id": 16912,
      "content": "Novel",
      "single_word": false,
      "lstrip": false,
      "rstrip": false,
      "normalized": true,
      "special": false
    },
    {
      "id": 17052,
      "content": "Scholar",
      "single_word": false,
      "lstrip": false,
      "rstrip": false,
      "normalized": true,
      "special": false
    },
    {
      "id": 17212,
      "content": "Cap",
      "single_word": false,
      "lstrip": false,
      "rstrip": false,
      "normalized": true,
      "special": false
    },
    {
      "id": 17282,
      "content": "Resource",
      "single_word": false,
      "lstrip": false,
      "rstrip": false,
      "normalized": true,
      "special": false
    },
    {
      "id": 17369,
      "content": "Cell",
      "single_word": false,
      "lstrip": false,
      "rstrip": false,
      "normalized": true,
      "special": false
    },
    {
      "id": 17426,
      "content": "HQ",
      "single_word": false,
      "lstrip": false,
      "rstrip": false,
      "normalized": true,
      "special": false
    },
    {
      "id": 17742,
      "content": "Platform",
      "single_word": false,
      "lstrip": false,
      "rstrip": false,
      "normalized": true,
      "special": false
    },
    {
      "id": 18461,
      "content": "Prevention",
      "single_word": false,
      "lstrip": false,
      "rstrip": false,
      "normalized": true,
      "special": false
    },
    {
      "id": 18525,
      "content": "Target",
      "single_word": false,
      "lstrip": false,
      "rstrip": false,
      "normalized": true,
      "special": false
    },
    {
      "id": 18630,
      "content": "https",
      "single_word": false,
      "lstrip": false,
      "rstrip": false,
      "normalized": true,
      "special": false
    },
    {
      "id": 18819,
      "content": "Irwin",
      "single_word": false,
      "lstrip": false,
      "rstrip": false,
      "normalized": true,
      "special": false
    },
    {
      "id": 18842,
      "content": "Liang",
      "single_word": false,
      "lstrip": false,
      "rstrip": false,
      "normalized": true,
      "special": false
    },
    {
      "id": 19714,
      "content": "Reference",
      "single_word": false,
      "lstrip": false,
      "rstrip": false,
      "normalized": true,
      "special": false
    },
    {
      "id": 19753,
      "content": "UP",
      "single_word": false,
      "lstrip": false,
      "rstrip": false,
      "normalized": true,
      "special": false
    },
    {
      "id": 19830,
      "content": "Macmillan",
      "single_word": false,
      "lstrip": false,
      "rstrip": false,
      "normalized": true,
      "special": false
    },
    {
      "id": 19908,
      "content": "databases",
      "single_word": false,
      "lstrip": false,
      "rstrip": false,
      "normalized": true,
      "special": false
    },
    {
      "id": 20012,
      "content": "Disease",
      "single_word": false,
      "lstrip": false,
      "rstrip": false,
      "normalized": true,
      "special": false
    },
    {
      "id": 20062,
      "content": "Worldwide",
      "single_word": false,
      "lstrip": false,
      "rstrip": false,
      "normalized": true,
      "special": false
    },
    {
      "id": 20544,
      "content": "Landscape",
      "single_word": false,
      "lstrip": false,
      "rstrip": false,
      "normalized": true,
      "special": false
    },
    {
      "id": 20756,
      "content": "Gao",
      "single_word": false,
      "lstrip": false,
      "rstrip": false,
      "normalized": true,
      "special": false
    },
    {
      "id": 20942,
      "content": "viruses",
      "single_word": false,
      "lstrip": false,
      "rstrip": false,
      "normalized": true,
      "special": false
    },
    {
      "id": 21545,
      "content": "cosmic",
      "single_word": false,
      "lstrip": false,
      "rstrip": false,
      "normalized": true,
      "special": false
    },
    {
      "id": 21824,
      "content": "Map",
      "single_word": false,
      "lstrip": false,
      "rstrip": false,
      "normalized": true,
      "special": false
    },
    {
      "id": 21928,
      "content": "Bat",
      "single_word": false,
      "lstrip": false,
      "rstrip": false,
      "normalized": true,
      "special": false
    },
    {
      "id": 21973,
      "content": "labs",
      "single_word": false,
      "lstrip": false,
      "rstrip": false,
      "normalized": true,
      "special": false
    },
    {
      "id": 22175,
      "content": "Molecular",
      "single_word": false,
      "lstrip": false,
      "rstrip": false,
      "normalized": true,
      "special": false
    },
    {
      "id": 22238,
      "content": "Xiao",
      "single_word": false,
      "lstrip": false,
      "rstrip": false,
      "normalized": true,
      "special": false
    },
    {
      "id": 22249,
      "content": "Product",
      "single_word": false,
      "lstrip": false,
      "rstrip": false,
      "normalized": true,
      "special": false
    },
    {
      "id": 22260,
      "content": "Yates",
      "single_word": false,
      "lstrip": false,
      "rstrip": false,
      "normalized": true,
      "special": false
    },
    {
      "id": 22347,
      "content": "Centers",
      "single_word": false,
      "lstrip": false,
      "rstrip": false,
      "normalized": true,
      "special": false
    },
    {
      "id": 22459,
      "content": "MG",
      "single_word": false,
      "lstrip": false,
      "rstrip": false,
      "normalized": true,
      "special": false
    },
    {
      "id": 22929,
      "content": "Database",
      "single_word": false,
      "lstrip": false,
      "rstrip": false,
      "normalized": true,
      "special": false
    },
    {
      "id": 22993,
      "content": "Healthcare",
      "single_word": false,
      "lstrip": false,
      "rstrip": false,
      "normalized": true,
      "special": false
    },
    {
      "id": 23274,
      "content": "Shu",
      "single_word": false,
      "lstrip": false,
      "rstrip": false,
      "normalized": true,
      "special": false
    },
    {
      "id": 23603,
      "content": "Carbon",
      "single_word": false,
      "lstrip": false,
      "rstrip": false,
      "normalized": true,
      "special": false
    },
    {
      "id": 23750,
      "content": "WHO",
      "single_word": false,
      "lstrip": false,
      "rstrip": false,
      "normalized": true,
      "special": false
    },
    {
      "id": 23875,
      "content": "apps",
      "single_word": false,
      "lstrip": false,
      "rstrip": false,
      "normalized": true,
      "special": false
    },
    {
      "id": 23992,
      "content": "info",
      "single_word": false,
      "lstrip": false,
      "rstrip": false,
      "normalized": true,
      "special": false
    },
    {
      "id": 24030,
      "content": "Framework",
      "single_word": false,
      "lstrip": false,
      "rstrip": false,
      "normalized": true,
      "special": false
    },
    {
      "id": 24641,
      "content": "NW",
      "single_word": false,
      "lstrip": false,
      "rstrip": false,
      "normalized": true,
      "special": false
    },
    {
      "id": 24712,
      "content": "medicinal",
      "single_word": false,
      "lstrip": false,
      "rstrip": false,
      "normalized": true,
      "special": false
    },
    {
      "id": 25137,
      "content": "Doll",
      "single_word": false,
      "lstrip": false,
      "rstrip": false,
      "normalized": true,
      "special": false
    },
    {
      "id": 25222,
      "content": "Consortium",
      "single_word": false,
      "lstrip": false,
      "rstrip": false,
      "normalized": true,
      "special": false
    },
    {
      "id": 25741,
      "content": "Comparative",
      "single_word": false,
      "lstrip": false,
      "rstrip": false,
      "normalized": true,
      "special": false
    },
    {
      "id": 26006,
      "content": "uk",
      "single_word": false,
      "lstrip": false,
      "rstrip": false,
      "normalized": true,
      "special": false
    },
    {
      "id": 26326,
      "content": "Physicians",
      "single_word": false,
      "lstrip": false,
      "rstrip": false,
      "normalized": true,
      "special": false
    },
    {
      "id": 26780,
      "content": "Pereira",
      "single_word": false,
      "lstrip": false,
      "rstrip": false,
      "normalized": true,
      "special": false
    },
    {
      "id": 27157,
      "content": "GO",
      "single_word": false,
      "lstrip": false,
      "rstrip": false,
      "normalized": true,
      "special": false
    },
    {
      "id": 27455,
      "content": "Portal",
      "single_word": false,
      "lstrip": false,
      "rstrip": false,
      "normalized": true,
      "special": false
    },
    {
      "id": 27845,
      "content": "Evaluation",
      "single_word": false,
      "lstrip": false,
      "rstrip": false,
      "normalized": true,
      "special": false
    },
    {
      "id": 28066,
      "content": "html",
      "single_word": false,
      "lstrip": false,
      "rstrip": false,
      "normalized": true,
      "special": false
    },
    {
      "id": 29005,
      "content": "ac",
      "single_word": false,
      "lstrip": false,
      "rstrip": false,
      "normalized": true,
      "special": false
    },
    {
      "id": 29342,
      "content": "iss",
      "single_word": false,
      "lstrip": false,
      "rstrip": false,
      "normalized": true,
      "special": false
    },
    {
      "id": 30057,
      "content": "ae",
      "single_word": false,
      "lstrip": false,
      "rstrip": false,
      "normalized": true,
      "special": false
    },
    {
      "id": 30451,
      "content": "NP",
      "single_word": false,
      "lstrip": false,
      "rstrip": false,
      "normalized": true,
      "special": false
    },
    {
      "id": 31192,
      "content": "int",
      "single_word": false,
      "lstrip": false,
      "rstrip": false,
      "normalized": true,
      "special": false
    },
    {
      "id": 31400,
      "content": "umm",
      "single_word": false,
      "lstrip": false,
      "rstrip": false,
      "normalized": true,
      "special": false
    },
    {
      "id": 31409,
      "content": "MT",
      "single_word": false,
      "lstrip": false,
      "rstrip": false,
      "normalized": true,
      "special": false
    },
    {
      "id": 32131,
      "content": "LC",
      "single_word": false,
      "lstrip": false,
      "rstrip": false,
      "normalized": true,
      "special": false
    },
    {
      "id": 33342,
      "content": "YP",
      "single_word": false,
      "lstrip": false,
      "rstrip": false,
      "normalized": true,
      "special": false
    },
    {
      "id": 33405,
      "content": "uni",
      "single_word": false,
      "lstrip": false,
      "rstrip": false,
      "normalized": true,
      "special": false
    },
    {
      "id": 33634,
      "content": "jp",
      "single_word": false,
      "lstrip": false,
      "rstrip": false,
      "normalized": true,
      "special": false
    },
    {
      "id": 34649,
      "content": "nih",
      "single_word": false,
      "lstrip": false,
      "rstrip": false,
      "normalized": true,
      "special": false
    },
    {
      "id": 36286,
      "content": "TG",
      "single_word": false,
      "lstrip": false,
      "rstrip": false,
      "normalized": true,
      "special": false
    },
    {
      "id": 37036,
      "content": "PDB",
      "single_word": false,
      "lstrip": false,
      "rstrip": false,
      "normalized": true,
      "special": false
    },
    {
      "id": 37657,
      "content": "ref",
      "single_word": false,
      "lstrip": false,
      "rstrip": false,
      "normalized": true,
      "special": false
    },
    {
      "id": 37713,
      "content": "MM",
      "single_word": false,
      "lstrip": false,
      "rstrip": false,
      "normalized": true,
      "special": false
    },
    {
      "id": 38007,
      "content": "Protein",
      "single_word": false,
      "lstrip": false,
      "rstrip": false,
      "normalized": true,
      "special": false
    },
    {
      "id": 38291,
      "content": "sg",
      "single_word": false,
      "lstrip": false,
      "rstrip": false,
      "normalized": true,
      "special": false
    },
    {
      "id": 38326,
      "content": "oup",
      "single_word": false,
      "lstrip": false,
      "rstrip": false,
      "normalized": true,
      "special": false
    },
    {
      "id": 38340,
      "content": "Genetics",
      "single_word": false,
      "lstrip": false,
      "rstrip": false,
      "normalized": true,
      "special": false
    },
    {
      "id": 38661,
      "content": "phs",
      "single_word": false,
      "lstrip": false,
      "rstrip": false,
      "normalized": true,
      "special": false
    },
    {
      "id": 38731,
      "content": "GenBank",
      "single_word": false,
      "lstrip": false,
      "rstrip": false,
      "normalized": true,
      "special": false
    },
    {
      "id": 39128,
      "content": "ncbi",
      "single_word": false,
      "lstrip": false,
      "rstrip": false,
      "normalized": true,
      "special": false
    },
    {
      "id": 39223,
      "content": "nlm",
      "single_word": false,
      "lstrip": false,
      "rstrip": false,
      "normalized": true,
      "special": false
    },
    {
      "id": 40020,
      "content": "Immune",
      "single_word": false,
      "lstrip": false,
      "rstrip": false,
      "normalized": true,
      "special": false
    },
    {
      "id": 40883,
      "content": "gov",
      "single_word": false,
      "lstrip": false,
      "rstrip": false,
      "normalized": true,
      "special": false
    },
    {
      "id": 41518,
      "content": "Genome",
      "single_word": false,
      "lstrip": false,
      "rstrip": false,
      "normalized": true,
      "special": false
    },
    {
      "id": 41632,
      "content": "cn",
      "single_word": false,
      "lstrip": false,
      "rstrip": false,
      "normalized": true,
      "special": false
    },
    {
      "id": 42025,
      "content": "rep",
      "single_word": false,
      "lstrip": false,
      "rstrip": false,
      "normalized": true,
      "special": false
    },
    {
      "id": 42576,
      "content": "FN",
      "single_word": false,
      "lstrip": false,
      "rstrip": false,
      "normalized": true,
      "special": false
    },
    {
      "id": 42702,
      "content": "pdf",
      "single_word": false,
      "lstrip": false,
      "rstrip": false,
      "normalized": true,
      "special": false
    },
    {
      "id": 42767,
      "content": "Microbiology",
      "single_word": false,
      "lstrip": false,
      "rstrip": false,
      "normalized": true,
      "special": false
    },
    {
      "id": 43103,
      "content": "Oncology",
      "single_word": false,
      "lstrip": false,
      "rstrip": false,
      "normalized": true,
      "special": false
    },
    {
      "id": 44923,
      "content": "ESP",
      "single_word": false,
      "lstrip": false,
      "rstrip": false,
      "normalized": true,
      "special": false
    },
    {
      "id": 46053,
      "content": "MK",
      "single_word": false,
      "lstrip": false,
      "rstrip": false,
      "normalized": true,
      "special": false
    },
    {
      "id": 46338,
      "content": "php",
      "single_word": false,
      "lstrip": false,
      "rstrip": false,
      "normalized": true,
      "special": false
    },
    {
      "id": 46963,
      "content": "HPA",
      "single_word": false,
      "lstrip": false,
      "rstrip": false,
      "normalized": true,
      "special": false
    },
    {
      "id": 47433,
      "content": "rheum",
      "single_word": false,
      "lstrip": false,
      "rstrip": false,
      "normalized": true,
      "special": false
    },
    {
      "id": 47583,
      "content": "BLAST",
      "single_word": false,
      "lstrip": false,
      "rstrip": false,
      "normalized": true,
      "special": false
    },
    {
      "id": 47762,
      "content": "FV",
      "single_word": false,
      "lstrip": false,
      "rstrip": false,
      "normalized": true,
      "special": false
    },
    {
      "id": 50226,
      "content": "EMBL",
      "single_word": false,
      "lstrip": false,
      "rstrip": false,
      "normalized": true,
      "special": false
    },
    {
      "id": 50564,
      "content": "NCBI",
      "single_word": false,
      "lstrip": false,
      "rstrip": false,
      "normalized": true,
      "special": false
    },
    {
      "id": 50834,
      "content": "AVP",
      "single_word": false,
      "lstrip": false,
      "rstrip": false,
      "normalized": true,
      "special": false
    },
    {
      "id": 51048,
      "content": "IO",
      "single_word": false,
      "lstrip": false,
      "rstrip": false,
      "normalized": true,
      "special": false
    },
    {
      "id": 52501,
      "content": "github",
      "single_word": false,
      "lstrip": false,
      "rstrip": false,
      "normalized": true,
      "special": false
    },
    {
      "id": 52511,
      "content": "db",
      "single_word": false,
      "lstrip": false,
      "rstrip": false,
      "normalized": true,
      "special": false
    },
    {
      "id": 52778,
      "content": "Genetic",
      "single_word": false,
      "lstrip": false,
      "rstrip": false,
      "normalized": true,
      "special": false
    },
    {
      "id": 54306,
      "content": "GSE",
      "single_word": false,
      "lstrip": false,
      "rstrip": false,
      "normalized": true,
      "special": false
    },
    {
      "id": 55205,
      "content": "cov",
      "single_word": false,
      "lstrip": false,
      "rstrip": false,
      "normalized": true,
      "special": false
    },
    {
      "id": 55689,
      "content": "edu",
      "single_word": false,
      "lstrip": false,
      "rstrip": false,
      "normalized": true,
      "special": false
    },
    {
      "id": 56442,
      "content": "ebi",
      "single_word": false,
      "lstrip": false,
      "rstrip": false,
      "normalized": true,
      "special": false
    },
    {
      "id": 57281,
      "content": "Genomics",
      "single_word": false,
      "lstrip": false,
      "rstrip": false,
      "normalized": true,
      "special": false
    },
    {
      "id": 58996,
      "content": "epidemiologia",
      "single_word": false,
      "lstrip": false,
      "rstrip": false,
      "normalized": true,
      "special": false
    },
    {
      "id": 58997,
      "content": "Genomes",
      "single_word": false,
      "lstrip": false,
      "rstrip": false,
      "normalized": true,
      "special": false
    },
    {
      "id": 58998,
      "content": "databank",
      "single_word": false,
      "lstrip": false,
      "rstrip": false,
      "normalized": true,
      "special": false
    },
    {
      "id": 58999,
      "content": "mirbase",
      "single_word": false,
      "lstrip": false,
      "rstrip": false,
      "normalized": true,
      "special": false
    },
    {
      "id": 59000,
      "content": "IRCCS",
      "single_word": false,
      "lstrip": false,
      "rstrip": false,
      "normalized": true,
      "special": false
    },
    {
      "id": 59001,
      "content": "Igarashi",
      "single_word": false,
      "lstrip": false,
      "rstrip": false,
      "normalized": true,
      "special": false
    },
    {
      "id": 59002,
      "content": "Zoonomia",
      "single_word": false,
      "lstrip": false,
      "rstrip": false,
      "normalized": true,
      "special": false
    },
    {
      "id": 59003,
      "content": "DrugBank",
      "single_word": false,
      "lstrip": false,
      "rstrip": false,
      "normalized": true,
      "special": false
    },
    {
      "id": 59004,
      "content": "Scopus",
      "single_word": false,
      "lstrip": false,
      "rstrip": false,
      "normalized": true,
      "special": false
    },
    {
      "id": 59005,
      "content": "lsp",
      "single_word": false,
      "lstrip": false,
      "rstrip": false,
      "normalized": true,
      "special": false
    },
    {
      "id": 59006,
      "content": "FEGA",
      "single_word": false,
      "lstrip": false,
      "rstrip": false,
      "normalized": true,
      "special": false
    },
    {
      "id": 59007,
      "content": "SRR",
      "single_word": false,
      "lstrip": false,
      "rstrip": false,
      "normalized": true,
      "special": false
    },
    {
      "id": 59008,
      "content": "ChiCTR",
      "single_word": false,
      "lstrip": false,
      "rstrip": false,
      "normalized": true,
      "special": false
    },
    {
      "id": 59009,
      "content": "murciasalud",
      "single_word": false,
      "lstrip": false,
      "rstrip": false,
      "normalized": true,
      "special": false
    },
    {
      "id": 59010,
      "content": "McCauley",
      "single_word": false,
      "lstrip": false,
      "rstrip": false,
      "normalized": true,
      "special": false
    },
    {
      "id": 59011,
      "content": "genbank",
      "single_word": false,
      "lstrip": false,
      "rstrip": false,
      "normalized": true,
      "special": false
    },
    {
      "id": 59012,
      "content": "TRANSFAC",
      "single_word": false,
      "lstrip": false,
      "rstrip": false,
      "normalized": true,
      "special": false
    },
    {
      "id": 59013,
      "content": "GnomAD",
      "single_word": false,
      "lstrip": false,
      "rstrip": false,
      "normalized": true,
      "special": false
    },
    {
      "id": 59014,
      "content": "jsp",
      "single_word": false,
      "lstrip": false,
      "rstrip": false,
      "normalized": true,
      "special": false
    },
    {
      "id": 59015,
      "content": "Biotechnology",
      "single_word": false,
      "lstrip": false,
      "rstrip": false,
      "normalized": true,
      "special": false
    },
    {
      "id": 59016,
      "content": "Mertins",
      "single_word": false,
      "lstrip": false,
      "rstrip": false,
      "normalized": true,
      "special": false
    },
    {
      "id": 59017,
      "content": "Ensembl",
      "single_word": false,
      "lstrip": false,
      "rstrip": false,
      "normalized": true,
      "special": false
    },
    {
      "id": 59018,
      "content": "COG",
      "single_word": false,
      "lstrip": false,
      "rstrip": false,
      "normalized": true,
      "special": false
    },
    {
      "id": 59019,
      "content": "Corona",
      "single_word": false,
      "lstrip": false,
      "rstrip": false,
      "normalized": true,
      "special": false
    },
    {
      "id": 59020,
      "content": "ELK",
      "single_word": false,
      "lstrip": false,
      "rstrip": false,
      "normalized": true,
      "special": false
    },
    {
      "id": 59021,
      "content": "Virus",
      "single_word": false,
      "lstrip": false,
      "rstrip": false,
      "normalized": true,
      "special": false
    },
    {
      "id": 59022,
      "content": "ALW",
      "single_word": false,
      "lstrip": false,
      "rstrip": false,
      "normalized": true,
      "special": false
    },
    {
      "id": 59023,
      "content": "ELIXIR",
      "single_word": false,
      "lstrip": false,
      "rstrip": false,
      "normalized": true,
      "special": false
    },
    {
      "id": 59024,
      "content": "atlas",
      "single_word": false,
      "lstrip": false,
      "rstrip": false,
      "normalized": true,
      "special": false
    },
    {
      "id": 59025,
      "content": "Inheritance",
      "single_word": false,
      "lstrip": false,
      "rstrip": false,
      "normalized": true,
      "special": false
    },
    {
      "id": 59026,
      "content": "Biotechnological",
      "single_word": false,
      "lstrip": false,
      "rstrip": false,
      "normalized": true,
      "special": false
    },
    {
      "id": 59027,
      "content": "kazusa",
      "single_word": false,
      "lstrip": false,
      "rstrip": false,
      "normalized": true,
      "special": false
    },
    {
      "id": 59028,
      "content": "Mallick",
      "single_word": false,
      "lstrip": false,
      "rstrip": false,
      "normalized": true,
      "special": false
    },
    {
      "id": 59029,
      "content": "drugbank",
      "single_word": false,
      "lstrip": false,
      "rstrip": false,
      "normalized": true,
      "special": false
    },
    {
      "id": 59030,
      "content": "bidd",
      "single_word": false,
      "lstrip": false,
      "rstrip": false,
      "normalized": true,
      "special": false
    },
    {
      "id": 59031,
      "content": "Interferome",
      "single_word": false,
      "lstrip": false,
      "rstrip": false,
      "normalized": true,
      "special": false
    },
    {
      "id": 59032,
      "content": "Federated",
      "single_word": false,
      "lstrip": false,
      "rstrip": false,
      "normalized": true,
      "special": false
    },
    {
      "id": 59033,
      "content": "epicov",
      "single_word": false,
      "lstrip": false,
      "rstrip": false,
      "normalized": true,
      "special": false
    },
    {
      "id": 59034,
      "content": "NextStrain",
      "single_word": false,
      "lstrip": false,
      "rstrip": false,
      "normalized": true,
      "special": false
    },
    {
      "id": 59035,
      "content": "TCM",
      "single_word": false,
      "lstrip": false,
      "rstrip": false,
      "normalized": true,
      "special": false
    },
    {
      "id": 59036,
      "content": "miRTarBase",
      "single_word": false,
      "lstrip": false,
      "rstrip": false,
      "normalized": true,
      "special": false
    },
    {
      "id": 59037,
      "content": "geo",
      "single_word": false,
      "lstrip": false,
      "rstrip": false,
      "normalized": true,
      "special": false
    },
    {
      "id": 59038,
      "content": "dgiDB",
      "single_word": false,
      "lstrip": false,
      "rstrip": false,
      "normalized": true,
      "special": false
    },
    {
      "id": 59039,
      "content": "Sequencing",
      "single_word": false,
      "lstrip": false,
      "rstrip": false,
      "normalized": true,
      "special": false
    },
    {
      "id": 59040,
      "content": "Nextstrain",
      "single_word": false,
      "lstrip": false,
      "rstrip": false,
      "normalized": true,
      "special": false
    },
    {
      "id": 59041,
      "content": "DisGeNET",
      "single_word": false,
      "lstrip": false,
      "rstrip": false,
      "normalized": true,
      "special": false
    },
    {
      "id": 59042,
      "content": "NCRAS",
      "single_word": false,
      "lstrip": false,
      "rstrip": false,
      "normalized": true,
      "special": false
    },
    {
      "id": 59043,
      "content": "NCIB",
      "single_word": false,
      "lstrip": false,
      "rstrip": false,
      "normalized": true,
      "special": false
    },
    {
      "id": 59044,
      "content": "Lachmann",
      "single_word": false,
      "lstrip": false,
      "rstrip": false,
      "normalized": true,
      "special": false
    },
    {
      "id": 59045,
      "content": "Prot",
      "single_word": false,
      "lstrip": false,
      "rstrip": false,
      "normalized": true,
      "special": false
    },
    {
      "id": 59046,
      "content": "Microbiological",
      "single_word": false,
      "lstrip": false,
      "rstrip": false,
      "normalized": true,
      "special": false
    },
    {
      "id": 59047,
      "content": "clades",
      "single_word": false,
      "lstrip": false,
      "rstrip": false,
      "normalized": true,
      "special": false
    },
    {
      "id": 59048,
      "content": "african",
      "single_word": false,
      "lstrip": false,
      "rstrip": false,
      "normalized": true,
      "special": false
    },
    {
      "id": 59049,
      "content": "Activity",
      "single_word": false,
      "lstrip": false,
      "rstrip": false,
      "normalized": true,
      "special": false
    },
    {
      "id": 59050,
      "content": "UniProt",
      "single_word": false,
      "lstrip": false,
      "rstrip": false,
      "normalized": true,
      "special": false
    },
    {
      "id": 59051,
      "content": "ZINC",
      "single_word": false,
      "lstrip": false,
      "rstrip": false,
      "normalized": true,
      "special": false
    },
    {
      "id": 59052,
      "content": "nextstrain",
      "single_word": false,
      "lstrip": false,
      "rstrip": false,
      "normalized": true,
      "special": false
    },
    {
      "id": 59053,
      "content": "LUAD",
      "single_word": false,
      "lstrip": false,
      "rstrip": false,
      "normalized": true,
      "special": false
    },
    {
      "id": 59054,
      "content": "Bioinformatics",
      "single_word": false,
      "lstrip": false,
      "rstrip": false,
      "normalized": true,
      "special": false
    },
    {
      "id": 59055,
      "content": "EBI",
      "single_word": false,
      "lstrip": false,
      "rstrip": false,
      "normalized": true,
      "special": false
    },
    {
      "id": 59056,
      "content": "nus",
      "single_word": false,
      "lstrip": false,
      "rstrip": false,
      "normalized": true,
      "special": false
    },
    {
      "id": 59057,
      "content": "Hadfield",
      "single_word": false,
      "lstrip": false,
      "rstrip": false,
      "normalized": true,
      "special": false
    },
    {
      "id": 59058,
      "content": "PROCKO",
      "single_word": false,
      "lstrip": false,
      "rstrip": false,
      "normalized": true,
      "special": false
    },
    {
      "id": 59059,
      "content": "TCGA",
      "single_word": false,
      "lstrip": false,
      "rstrip": false,
      "normalized": true,
      "special": false
    },
    {
      "id": 59060,
      "content": "Crowdfight",
      "single_word": false,
      "lstrip": false,
      "rstrip": false,
      "normalized": true,
      "special": false
    },
    {
      "id": 59061,
      "content": "CCC",
      "single_word": false,
      "lstrip": false,
      "rstrip": false,
      "normalized": true,
      "special": false
    },
    {
      "id": 59062,
      "content": "gsea",
      "single_word": false,
      "lstrip": false,
      "rstrip": false,
      "normalized": true,
      "special": false
    },
    {
      "id": 59063,
      "content": "broadinstitute",
      "single_word": false,
      "lstrip": false,
      "rstrip": false,
      "normalized": true,
      "special": false
    },
    {
      "id": 59064,
      "content": "MiRTarBase",
      "single_word": false,
      "lstrip": false,
      "rstrip": false,
      "normalized": true,
      "special": false
    },
    {
      "id": 59065,
      "content": "CNGBdb",
      "single_word": false,
      "lstrip": false,
      "rstrip": false,
      "normalized": true,
      "special": false
    },
    {
      "id": 59066,
      "content": "CTD",
      "single_word": false,
      "lstrip": false,
      "rstrip": false,
      "normalized": true,
      "special": false
    },
    {
      "id": 59067,
      "content": "PaxDb",
      "single_word": false,
      "lstrip": false,
      "rstrip": false,
      "normalized": true,
      "special": false
    },
    {
      "id": 59068,
      "content": "nwsuaf",
      "single_word": false,
      "lstrip": false,
      "rstrip": false,
      "normalized": true,
      "special": false
    },
    {
      "id": 59069,
      "content": "sars",
      "single_word": false,
      "lstrip": false,
      "rstrip": false,
      "normalized": true,
      "special": false
    },
    {
      "id": 59070,
      "content": "folders",
      "single_word": false,
      "lstrip": false,
      "rstrip": false,
      "normalized": true,
      "special": false
    },
    {
      "id": 59071,
      "content": "QHD",
      "single_word": false,
      "lstrip": false,
      "rstrip": false,
      "normalized": true,
      "special": false
    },
    {
      "id": 59072,
      "content": "GIANT",
      "single_word": false,
      "lstrip": false,
      "rstrip": false,
      "normalized": true,
      "special": false
    },
    {
      "id": 59073,
      "content": "Liberzon",
      "single_word": false,
      "lstrip": false,
      "rstrip": false,
      "normalized": true,
      "special": false
    },
    {
      "id": 59074,
      "content": "Audit",
      "single_word": false,
      "lstrip": false,
      "rstrip": false,
      "normalized": true,
      "special": false
    },
    {
      "id": 59075,
      "content": "tsv",
      "single_word": false,
      "lstrip": false,
      "rstrip": false,
      "normalized": true,
      "special": false
    },
    {
      "id": 59076,
      "content": "GeneCards",
      "single_word": false,
      "lstrip": false,
      "rstrip": false,
      "normalized": true,
      "special": false
    },
    {
      "id": 59077,
      "content": "influenza",
      "single_word": false,
      "lstrip": false,
      "rstrip": false,
      "normalized": true,
      "special": false
    },
    {
      "id": 59078,
      "content": "Cotto",
      "single_word": false,
      "lstrip": false,
      "rstrip": false,
      "normalized": true,
      "special": false
    },
    {
      "id": 59079,
      "content": "Aggregation",
      "single_word": false,
      "lstrip": false,
      "rstrip": false,
      "normalized": true,
      "special": false
    },
    {
      "id": 59080,
      "content": "VIPR",
      "single_word": false,
      "lstrip": false,
      "rstrip": false,
      "normalized": true,
      "special": false
    },
    {
      "id": 59081,
      "content": "Reactome",
      "single_word": false,
      "lstrip": false,
      "rstrip": false,
      "normalized": true,
      "special": false
    },
    {
      "id": 59082,
      "content": "jhu",
      "single_word": false,
      "lstrip": false,
      "rstrip": false,
      "normalized": true,
      "special": false
    },
    {
      "id": 59083,
      "content": "Kurth",
      "single_word": false,
      "lstrip": false,
      "rstrip": false,
      "normalized": true,
      "special": false
    },
    {
      "id": 59084,
      "content": "Toxicity",
      "single_word": false,
      "lstrip": false,
      "rstrip": false,
      "normalized": true,
      "special": false
    },
    {
      "id": 59085,
      "content": "Genbank",
      "single_word": false,
      "lstrip": false,
      "rstrip": false,
      "normalized": true,
      "special": false
    },
    {
      "id": 59086,
      "content": "proteinatlas",
      "single_word": false,
      "lstrip": false,
      "rstrip": false,
      "normalized": true,
      "special": false
    },
    {
      "id": 59087,
      "content": "STRING",
      "single_word": false,
      "lstrip": false,
      "rstrip": false,
      "normalized": true,
      "special": false
    },
    {
      "id": 59088,
      "content": "Elbe",
      "single_word": false,
      "lstrip": false,
      "rstrip": false,
      "normalized": true,
      "special": false
    },
    {
      "id": 59089,
      "content": "HUGO",
      "single_word": false,
      "lstrip": false,
      "rstrip": false,
      "normalized": true,
      "special": false
    },
    {
      "id": 59090,
      "content": "gnomAD",
      "single_word": false,
      "lstrip": false,
      "rstrip": false,
      "normalized": true,
      "special": false
    },
    {
      "id": 59091,
      "content": "epitope",
      "single_word": false,
      "lstrip": false,
      "rstrip": false,
      "normalized": true,
      "special": false
    },
    {
      "id": 59092,
      "content": "KIRP",
      "single_word": false,
      "lstrip": false,
      "rstrip": false,
      "normalized": true,
      "special": false
    },
    {
      "id": 59093,
      "content": "OMIM",
      "single_word": false,
      "lstrip": false,
      "rstrip": false,
      "normalized": true,
      "special": false
    },
    {
      "id": 59094,
      "content": "GSA",
      "single_word": false,
      "lstrip": false,
      "rstrip": false,
      "normalized": true,
      "special": false
    },
    {
      "id": 59095,
      "content": "DatAC",
      "single_word": false,
      "lstrip": false,
      "rstrip": false,
      "normalized": true,
      "special": false
    },
    {
      "id": 59096,
      "content": "nCoV",
      "single_word": false,
      "lstrip": false,
      "rstrip": false,
      "normalized": true,
      "special": false
    },
    {
      "id": 59097,
      "content": "emergencies",
      "single_word": false,
      "lstrip": false,
      "rstrip": false,
      "normalized": true,
      "special": false
    },
    {
      "id": 59098,
      "content": "Therapeutic",
      "single_word": false,
      "lstrip": false,
      "rstrip": false,
      "normalized": true,
      "special": false
    },
    {
      "id": 59099,
      "content": "genebank",
      "single_word": false,
      "lstrip": false,
      "rstrip": false,
      "normalized": true,
      "special": false
    },
    {
      "id": 59100,
      "content": "vssi",
      "single_word": false,
      "lstrip": false,
      "rstrip": false,
      "normalized": true,
      "special": false
    },
    {
      "id": 59101,
      "content": "FANTOM",
      "single_word": false,
      "lstrip": false,
      "rstrip": false,
      "normalized": true,
      "special": false
    },
    {
      "id": 59102,
      "content": "Rambaut",
      "single_word": false,
      "lstrip": false,
      "rstrip": false,
      "normalized": true,
      "special": false
    },
    {
      "id": 59103,
      "content": "elixir",
      "single_word": false,
      "lstrip": false,
      "rstrip": false,
      "normalized": true,
      "special": false
    },
    {
      "id": 59104,
      "content": "Genecard",
      "single_word": false,
      "lstrip": false,
      "rstrip": false,
      "normalized": true,
      "special": false
    },
    {
      "id": 59105,
      "content": "Tianjin",
      "single_word": false,
      "lstrip": false,
      "rstrip": false,
      "normalized": true,
      "special": false
    },
    {
      "id": 59106,
      "content": "zenodo",
      "single_word": false,
      "lstrip": false,
      "rstrip": false,
      "normalized": true,
      "special": false
    },
    {
      "id": 59107,
      "content": "ISL",
      "single_word": false,
      "lstrip": false,
      "rstrip": false,
      "normalized": true,
      "special": false
    },
    {
      "id": 59108,
      "content": "uniprot",
      "single_word": false,
      "lstrip": false,
      "rstrip": false,
      "normalized": true,
      "special": false
    },
    {
      "id": 59109,
      "content": "BATMAN",
      "single_word": false,
      "lstrip": false,
      "rstrip": false,
      "normalized": true,
      "special": false
    },
    {
      "id": 59110,
      "content": "Chami",
      "single_word": false,
      "lstrip": false,
      "rstrip": false,
      "normalized": true,
      "special": false
    },
    {
      "id": 59111,
      "content": "CNGB",
      "single_word": false,
      "lstrip": false,
      "rstrip": false,
      "normalized": true,
      "special": false
    },
    {
      "id": 59112,
      "content": "DOI",
      "single_word": false,
      "lstrip": false,
      "rstrip": false,
      "normalized": true,
      "special": false
    },
    {
      "id": 59113,
      "content": "togovar",
      "single_word": false,
      "lstrip": false,
      "rstrip": false,
      "normalized": true,
      "special": false
    },
    {
      "id": 59114,
      "content": "Toft",
      "single_word": false,
      "lstrip": false,
      "rstrip": false,
      "normalized": true,
      "special": false
    },
    {
      "id": 59115,
      "content": "gnomad",
      "single_word": false,
      "lstrip": false,
      "rstrip": false,
      "normalized": true,
      "special": false
    },
    {
      "id": 59116,
      "content": "coronavirus",
      "single_word": false,
      "lstrip": false,
      "rstrip": false,
      "normalized": true,
      "special": false
    },
    {
      "id": 59117,
      "content": "Refseq",
      "single_word": false,
      "lstrip": false,
      "rstrip": false,
      "normalized": true,
      "special": false
    },
    {
      "id": 59118,
      "content": "genomes",
      "single_word": false,
      "lstrip": false,
      "rstrip": false,
      "normalized": true,
      "special": false
    },
    {
      "id": 59119,
      "content": "CHESS",
      "single_word": false,
      "lstrip": false,
      "rstrip": false,
      "normalized": true,
      "special": false
    },
    {
      "id": 59120,
      "content": "washington",
      "single_word": false,
      "lstrip": false,
      "rstrip": false,
      "normalized": true,
      "special": false
    },
    {
      "id": 59121,
      "content": "cuhk",
      "single_word": false,
      "lstrip": false,
      "rstrip": false,
      "normalized": true,
      "special": false
    },
    {
      "id": 59122,
      "content": "pdb",
      "single_word": false,
      "lstrip": false,
      "rstrip": false,
      "normalized": true,
      "special": false
    },
    {
      "id": 59123,
      "content": "EbolaID",
      "single_word": false,
      "lstrip": false,
      "rstrip": false,
      "normalized": true,
      "special": false
    },
    {
      "id": 59124,
      "content": "lineages",
      "single_word": false,
      "lstrip": false,
      "rstrip": false,
      "normalized": true,
      "special": false
    },
    {
      "id": 59125,
      "content": "Viruses",
      "single_word": false,
      "lstrip": false,
      "rstrip": false,
      "normalized": true,
      "special": false
    },
    {
      "id": 59126,
      "content": "Traits",
      "single_word": false,
      "lstrip": false,
      "rstrip": false,
      "normalized": true,
      "special": false
    },
    {
      "id": 59127,
      "content": "Matys",
      "single_word": false,
      "lstrip": false,
      "rstrip": false,
      "normalized": true,
      "special": false
    },
    {
      "id": 59128,
      "content": "GEO",
      "single_word": false,
      "lstrip": false,
      "rstrip": false,
      "normalized": true,
      "special": false
    },
    {
      "id": 59129,
      "content": "Browser",
      "single_word": false,
      "lstrip": false,
      "rstrip": false,
      "normalized": true,
      "special": false
    },
    {
      "id": 59130,
      "content": "Simons",
      "single_word": false,
      "lstrip": false,
      "rstrip": false,
      "normalized": true,
      "special": false
    },
    {
      "id": 59131,
      "content": "MEDLINE",
      "single_word": false,
      "lstrip": false,
      "rstrip": false,
      "normalized": true,
      "special": false
    },
    {
      "id": 59132,
      "content": "LOVD",
      "single_word": false,
      "lstrip": false,
      "rstrip": false,
      "normalized": true,
      "special": false
    },
    {
      "id": 59133,
      "content": "Avian",
      "single_word": false,
      "lstrip": false,
      "rstrip": false,
      "normalized": true,
      "special": false
    },
    {
      "id": 59134,
      "content": "gs",
      "single_word": false,
      "lstrip": false,
      "rstrip": false,
      "normalized": true,
      "special": false
    },
    {
      "id": 59135,
      "content": "THCA",
      "single_word": false,
      "lstrip": false,
      "rstrip": false,
      "normalized": true,
      "special": false
    },
    {
      "id": 59136,
      "content": "SuperPred",
      "single_word": false,
      "lstrip": false,
      "rstrip": false,
      "normalized": true,
      "special": false
    },
    {
      "id": 59137,
      "content": "BioDesign",
      "single_word": false,
      "lstrip": false,
      "rstrip": false,
      "normalized": true,
      "special": false
    },
    {
      "id": 59138,
      "content": "miRWalk",
      "single_word": false,
      "lstrip": false,
      "rstrip": false,
      "normalized": true,
      "special": false
    },
    {
      "id": 59139,
      "content": "GRA",
      "single_word": false,
      "lstrip": false,
      "rstrip": false,
      "normalized": true,
      "special": false
    },
    {
      "id": 59140,
      "content": "Annotation",
      "single_word": false,
      "lstrip": false,
      "rstrip": false,
      "normalized": true,
      "special": false
    },
    {
      "id": 59141,
      "content": "RedCAP",
      "single_word": false,
      "lstrip": false,
      "rstrip": false,
      "normalized": true,
      "special": false
    },
    {
      "id": 59142,
      "content": "viprbrc",
      "single_word": false,
      "lstrip": false,
      "rstrip": false,
      "normalized": true,
      "special": false
    },
    {
      "id": 59143,
      "content": "ICNARC",
      "single_word": false,
      "lstrip": false,
      "rstrip": false,
      "normalized": true,
      "special": false
    },
    {
      "id": 59144,
      "content": "Coronaviren",
      "single_word": false,
      "lstrip": false,
      "rstrip": false,
      "normalized": true,
      "special": false
    },
    {
      "id": 59145,
      "content": "gz",
      "single_word": false,
      "lstrip": false,
      "rstrip": false,
      "normalized": true,
      "special": false
    },
    {
      "id": 59146,
      "content": "dbGAP",
      "single_word": false,
      "lstrip": false,
      "rstrip": false,
      "normalized": true,
      "special": false
    },
    {
      "id": 59147,
      "content": "cbioportal",
      "single_word": false,
      "lstrip": false,
      "rstrip": false,
      "normalized": true,
      "special": false
    },
    {
      "id": 59148,
      "content": "KY",
      "single_word": false,
      "lstrip": false,
      "rstrip": false,
      "normalized": true,
      "special": false
    },
    {
      "id": 59149,
      "content": "msigdb",
      "single_word": false,
      "lstrip": false,
      "rstrip": false,
      "normalized": true,
      "special": false
    },
    {
      "id": 59150,
      "content": "MOPED",
      "single_word": false,
      "lstrip": false,
      "rstrip": false,
      "normalized": true,
      "special": false
    },
    {
      "id": 59151,
      "content": "hcov",
      "single_word": false,
      "lstrip": false,
      "rstrip": false,
      "normalized": true,
      "special": false
    },
    {
      "id": 59152,
      "content": "COSMIC",
      "single_word": false,
      "lstrip": false,
      "rstrip": false,
      "normalized": true,
      "special": false
    },
    {
      "id": 59153,
      "content": "covid",
      "single_word": false,
      "lstrip": false,
      "rstrip": false,
      "normalized": true,
      "special": false
    },
    {
      "id": 59154,
      "content": "ENCODE",
      "single_word": false,
      "lstrip": false,
      "rstrip": false,
      "normalized": true,
      "special": false
    },
    {
      "id": 59155,
      "content": "KICH",
      "single_word": false,
      "lstrip": false,
      "rstrip": false,
      "normalized": true,
      "special": false
    },
    {
      "id": 59156,
      "content": "GtRNAdb",
      "single_word": false,
      "lstrip": false,
      "rstrip": false,
      "normalized": true,
      "special": false
    },
    {
      "id": 59157,
      "content": "Electron",
      "single_word": false,
      "lstrip": false,
      "rstrip": false,
      "normalized": true,
      "special": false
    },
    {
      "id": 59158,
      "content": "Epitope",
      "single_word": false,
      "lstrip": false,
      "rstrip": false,
      "normalized": true,
      "special": false
    },
    {
      "id": 59159,
      "content": "DataBase",
      "single_word": false,
      "lstrip": false,
      "rstrip": false,
      "normalized": true,
      "special": false
    },
    {
      "id": 59160,
      "content": "rcsb",
      "single_word": false,
      "lstrip": false,
      "rstrip": false,
      "normalized": true,
      "special": false
    },
    {
      "id": 59161,
      "content": "GDC",
      "single_word": false,
      "lstrip": false,
      "rstrip": false,
      "normalized": true,
      "special": false
    },
    {
      "id": 59162,
      "content": "Registry",
      "single_word": false,
      "lstrip": false,
      "rstrip": false,
      "normalized": true,
      "special": false
    },
    {
      "id": 59163,
      "content": "Pharmacology",
      "single_word": false,
      "lstrip": false,
      "rstrip": false,
      "normalized": true,
      "special": false
    },
    {
      "id": 59164,
      "content": "dbMHC",
      "single_word": false,
      "lstrip": false,
      "rstrip": false,
      "normalized": true,
      "special": false
    },
    {
      "id": 59165,
      "content": "GU",
      "single_word": false,
      "lstrip": false,
      "rstrip": false,
      "normalized": true,
      "special": false
    },
    {
      "id": 59166,
      "content": "txid",
      "single_word": false,
      "lstrip": false,
      "rstrip": false,
      "normalized": true,
      "special": false
    },
    {
      "id": 59167,
      "content": "Xiong",
      "single_word": false,
      "lstrip": false,
      "rstrip": false,
      "normalized": true,
      "special": false
    },
    {
      "id": 59168,
      "content": "Worldometers",
      "single_word": false,
      "lstrip": false,
      "rstrip": false,
      "normalized": true,
      "special": false
    },
    {
      "id": 59169,
      "content": "Fuertes",
      "single_word": false,
      "lstrip": false,
      "rstrip": false,
      "normalized": true,
      "special": false
    },
    {
      "id": 59170,
      "content": "ARCHS",
      "single_word": false,
      "lstrip": false,
      "rstrip": false,
      "normalized": true,
      "special": false
    },
    {
      "id": 59171,
      "content": "SCP",
      "single_word": false,
      "lstrip": false,
      "rstrip": false,
      "normalized": true,
      "special": false
    },
    {
      "id": 59172,
      "content": "eular",
      "single_word": false,
      "lstrip": false,
      "rstrip": false,
      "normalized": true,
      "special": false
    },
    {
      "id": 59173,
      "content": "PubMed",
      "single_word": false,
      "lstrip": false,
      "rstrip": false,
      "normalized": true,
      "special": false
    },
    {
      "id": 59174,
      "content": "JX",
      "single_word": false,
      "lstrip": false,
      "rstrip": false,
      "normalized": true,
      "special": false
    },
    {
      "id": 59175,
      "content": "gisaid",
      "single_word": false,
      "lstrip": false,
      "rstrip": false,
      "normalized": true,
      "special": false
    },
    {
      "id": 59176,
      "content": "Monitoring",
      "single_word": false,
      "lstrip": false,
      "rstrip": false,
      "normalized": true,
      "special": false
    },
    {
      "id": 59177,
      "content": "PRJCA",
      "single_word": false,
      "lstrip": false,
      "rstrip": false,
      "normalized": true,
      "special": false
    },
    {
      "id": 59178,
      "content": "AY",
      "single_word": false,
      "lstrip": false,
      "rstrip": false,
      "normalized": true,
      "special": false
    },
    {
      "id": 59179,
      "content": "MH",
      "single_word": false,
      "lstrip": false,
      "rstrip": false,
      "normalized": true,
      "special": false
    },
    {
      "id": 59180,
      "content": "Drugbank",
      "single_word": false,
      "lstrip": false,
      "rstrip": false,
      "normalized": true,
      "special": false
    },
    {
      "id": 59181,
      "content": "cfm",
      "single_word": false,
      "lstrip": false,
      "rstrip": false,
      "normalized": true,
      "special": false
    },
    {
      "id": 59182,
      "content": "interferome",
      "single_word": false,
      "lstrip": false,
      "rstrip": false,
      "normalized": true,
      "special": false
    },
    {
      "id": 59183,
      "content": "interpro",
      "single_word": false,
      "lstrip": false,
      "rstrip": false,
      "normalized": true,
      "special": false
    },
    {
      "id": 59184,
      "content": "CoCARE",
      "single_word": false,
      "lstrip": false,
      "rstrip": false,
      "normalized": true,
      "special": false
    },
    {
      "id": 59185,
      "content": "ttd",
      "single_word": false,
      "lstrip": false,
      "rstrip": false,
      "normalized": true,
      "special": false
    },
    {
      "id": 59186,
      "content": "OSF",
      "single_word": false,
      "lstrip": false,
      "rstrip": false,
      "normalized": true,
      "special": false
    },
    {
      "id": 59187,
      "content": "europe",
      "single_word": false,
      "lstrip": false,
      "rstrip": false,
      "normalized": true,
      "special": false
    },
    {
      "id": 59188,
      "content": "KGZAF",
      "single_word": false,
      "lstrip": false,
      "rstrip": false,
      "normalized": true,
      "special": false
    },
    {
      "id": 59189,
      "content": "worldometers",
      "single_word": false,
      "lstrip": false,
      "rstrip": false,
      "normalized": true,
      "special": false
    },
    {
      "id": 59190,
      "content": "ProteomeXchange",
      "single_word": false,
      "lstrip": false,
      "rstrip": false,
      "normalized": true,
      "special": false
    },
    {
      "id": 59191,
      "content": "MaxQB",
      "single_word": false,
      "lstrip": false,
      "rstrip": false,
      "normalized": true,
      "special": false
    },
    {
      "id": 59192,
      "content": "alexandria",
      "single_word": false,
      "lstrip": false,
      "rstrip": false,
      "normalized": true,
      "special": false
    },
    {
      "id": 59193,
      "content": "Genes",
      "single_word": false,
      "lstrip": false,
      "rstrip": false,
      "normalized": true,
      "special": false
    },
    {
      "id": 59194,
      "content": "Biobank",
      "single_word": false,
      "lstrip": false,
      "rstrip": false,
      "normalized": true,
      "special": false
    },
    {
      "id": 59195,
      "content": "InterPro",
      "single_word": false,
      "lstrip": false,
      "rstrip": false,
      "normalized": true,
      "special": false
    },
    {
      "id": 59196,
      "content": "Berman",
      "single_word": false,
      "lstrip": false,
      "rstrip": false,
      "normalized": true,
      "special": false
    },
    {
      "id": 59197,
      "content": "biosciencedbc",
      "single_word": false,
      "lstrip": false,
      "rstrip": false,
      "normalized": true,
      "special": false
    },
    {
      "id": 59198,
      "content": "TABM",
      "single_word": false,
      "lstrip": false,
      "rstrip": false,
      "normalized": true,
      "special": false
    },
    {
      "id": 59199,
      "content": "Tool",
      "single_word": false,
      "lstrip": false,
      "rstrip": false,
      "normalized": true,
      "special": false
    },
    {
      "id": 59200,
      "content": "GSEA",
      "single_word": false,
      "lstrip": false,
      "rstrip": false,
      "normalized": true,
      "special": false
    },
    {
      "id": 59201,
      "content": "Functional",
      "single_word": false,
      "lstrip": false,
      "rstrip": false,
      "normalized": true,
      "special": false
    },
    {
      "id": 59202,
      "content": "Registration",
      "single_word": false,
      "lstrip": false,
      "rstrip": false,
      "normalized": true,
      "special": false
    },
    {
      "id": 59203,
      "content": "Coronavirus",
      "single_word": false,
      "lstrip": false,
      "rstrip": false,
      "normalized": true,
      "special": false
    },
    {
      "id": 59204,
      "content": "refseq",
      "single_word": false,
      "lstrip": false,
      "rstrip": false,
      "normalized": true,
      "special": false
    },
    {
      "id": 59205,
      "content": "NANPDB",
      "single_word": false,
      "lstrip": false,
      "rstrip": false,
      "normalized": true,
      "special": false
    },
    {
      "id": 59206,
      "content": "TGCA",
      "single_word": false,
      "lstrip": false,
      "rstrip": false,
      "normalized": true,
      "special": false
    },
    {
      "id": 59207,
      "content": "codon",
      "single_word": false,
      "lstrip": false,
      "rstrip": false,
      "normalized": true,
      "special": false
    },
    {
      "id": 59208,
      "content": "Bezstarosti",
      "single_word": false,
      "lstrip": false,
      "rstrip": false,
      "normalized": true,
      "special": false
    },
    {
      "id": 59209,
      "content": "bib",
      "single_word": false,
      "lstrip": false,
      "rstrip": false,
      "normalized": true,
      "special": false
    },
    {
      "id": 59210,
      "content": "PHE",
      "single_word": false,
      "lstrip": false,
      "rstrip": false,
      "normalized": true,
      "special": false
    },
    {
      "id": 59211,
      "content": "evs",
      "single_word": false,
      "lstrip": false,
      "rstrip": false,
      "normalized": true,
      "special": false
    },
    {
      "id": 59212,
      "content": "Mendeley",
      "single_word": false,
      "lstrip": false,
      "rstrip": false,
      "normalized": true,
      "special": false
    },
    {
      "id": 59213,
      "content": "pusbchem",
      "single_word": false,
      "lstrip": false,
      "rstrip": false,
      "normalized": true,
      "special": false
    },
    {
      "id": 59214,
      "content": "cnsa",
      "single_word": false,
      "lstrip": false,
      "rstrip": false,
      "normalized": true,
      "special": false
    },
    {
      "id": 59215,
      "content": "DrugMatrix",
      "single_word": false,
      "lstrip": false,
      "rstrip": false,
      "normalized": true,
      "special": false
    },
    {
      "id": 59216,
      "content": "nim",
      "single_word": false,
      "lstrip": false,
      "rstrip": false,
      "normalized": true,
      "special": false
    },
    {
      "id": 59217,
      "content": "AGV",
      "single_word": false,
      "lstrip": false,
      "rstrip": false,
      "normalized": true,
      "special": false
    },
    {
      "id": 59218,
      "content": "Influenza",
      "single_word": false,
      "lstrip": false,
      "rstrip": false,
      "normalized": true,
      "special": false
    },
    {
      "id": 59219,
      "content": "Tissue",
      "single_word": false,
      "lstrip": false,
      "rstrip": false,
      "normalized": true,
      "special": false
    },
    {
      "id": 59220,
      "content": "NCT",
      "single_word": false,
      "lstrip": false,
      "rstrip": false,
      "normalized": true,
      "special": false
    },
    {
      "id": 59221,
      "content": "EpiCoV",
      "single_word": false,
      "lstrip": false,
      "rstrip": false,
      "normalized": true,
      "special": false
    },
    {
      "id": 59222,
      "content": "Pathogen",
      "single_word": false,
      "lstrip": false,
      "rstrip": false,
      "normalized": true,
      "special": false
    },
    {
      "id": 59223,
      "content": "tcmsp",
      "single_word": false,
      "lstrip": false,
      "rstrip": false,
      "normalized": true,
      "special": false
    },
    {
      "id": 59224,
      "content": "Affymetrix",
      "single_word": false,
      "lstrip": false,
      "rstrip": false,
      "normalized": true,
      "special": false
    },
    {
      "id": 59225,
      "content": "chinacdc",
      "single_word": false,
      "lstrip": false,
      "rstrip": false,
      "normalized": true,
      "special": false
    },
    {
      "id": 59226,
      "content": "SGSS",
      "single_word": false,
      "lstrip": false,
      "rstrip": false,
      "normalized": true,
      "special": false
    },
    {
      "id": 59227,
      "content": "AAP",
      "single_word": false,
      "lstrip": false,
      "rstrip": false,
      "normalized": true,
      "special": false
    },
    {
      "id": 59228,
      "content": "Tumor",
      "single_word": false,
      "lstrip": false,
      "rstrip": false,
      "normalized": true,
      "special": false
    },
    {
      "id": 59229,
      "content": "BRCA",
      "single_word": false,
      "lstrip": false,
      "rstrip": false,
      "normalized": true,
      "special": false
    },
    {
      "id": 59230,
      "content": "RCSB",
      "single_word": false,
      "lstrip": false,
      "rstrip": false,
      "normalized": true,
      "special": false
    },
    {
      "id": 59231,
      "content": "REDCap",
      "single_word": false,
      "lstrip": false,
      "rstrip": false,
      "normalized": true,
      "special": false
    },
    {
      "id": 59232,
      "content": "epiflu",
      "single_word": false,
      "lstrip": false,
      "rstrip": false,
      "normalized": true,
      "special": false
    },
    {
      "id": 59233,
      "content": "mechANism",
      "single_word": false,
      "lstrip": false,
      "rstrip": false,
      "normalized": true,
      "special": false
    },
    {
      "id": 59234,
      "content": "Intensive",
      "single_word": false,
      "lstrip": false,
      "rstrip": false,
      "normalized": true,
      "special": false
    },
    {
      "id": 59235,
      "content": "google",
      "single_word": false,
      "lstrip": false,
      "rstrip": false,
      "normalized": true,
      "special": false
    },
    {
      "id": 59236,
      "content": "PubChem",
      "single_word": false,
      "lstrip": false,
      "rstrip": false,
      "normalized": true,
      "special": false
    },
    {
      "id": 59237,
      "content": "REDIportal",
      "single_word": false,
      "lstrip": false,
      "rstrip": false,
      "normalized": true,
      "special": false
    },
    {
      "id": 59238,
      "content": "Assisted",
      "single_word": false,
      "lstrip": false,
      "rstrip": false,
      "normalized": true,
      "special": false
    },
    {
      "id": 59239,
      "content": "Toxicogenomic",
      "single_word": false,
      "lstrip": false,
      "rstrip": false,
      "normalized": true,
      "special": false
    },
    {
      "id": 59240,
      "content": "hCoV",
      "single_word": false,
      "lstrip": false,
      "rstrip": false,
      "normalized": true,
      "special": false
    },
    {
      "id": 59241,
      "content": "cBioPortal",
      "single_word": false,
      "lstrip": false,
      "rstrip": false,
      "normalized": true,
      "special": false
    },
    {
      "id": 59242,
      "content": "GTex",
      "single_word": false,
      "lstrip": false,
      "rstrip": false,
      "normalized": true,
      "special": false
    },
    {
      "id": 59243,
      "content": "Diversity",
      "single_word": false,
      "lstrip": false,
      "rstrip": false,
      "normalized": true,
      "special": false
    },
    {
      "id": 59244,
      "content": "KJ",
      "single_word": false,
      "lstrip": false,
      "rstrip": false,
      "normalized": true,
      "special": false
    },
    {
      "id": 59245,
      "content": "proteomexchange",
      "single_word": false,
      "lstrip": false,
      "rstrip": false,
      "normalized": true,
      "special": false
    },
    {
      "id": 59246,
      "content": "SBM",
      "single_word": false,
      "lstrip": false,
      "rstrip": false,
      "normalized": true,
      "special": false
    },
    {
      "id": 59247,
      "content": "blob",
      "single_word": false,
      "lstrip": false,
      "rstrip": false,
      "normalized": true,
      "special": false
    },
    {
      "id": 59248,
      "content": "Variation",
      "single_word": false,
      "lstrip": false,
      "rstrip": false,
      "normalized": true,
      "special": false
    },
    {
      "id": 59249,
      "content": "Asinex",
      "single_word": false,
      "lstrip": false,
      "rstrip": false,
      "normalized": true,
      "special": false
    },
    {
      "id": 59250,
      "content": "CPTAC",
      "single_word": false,
      "lstrip": false,
      "rstrip": false,
      "normalized": true,
      "special": false
    },
    {
      "id": 59251,
      "content": "ESMO",
      "single_word": false,
      "lstrip": false,
      "rstrip": false,
      "normalized": true,
      "special": false
    },
    {
      "id": 59252,
      "content": "Buckland",
      "single_word": false,
      "lstrip": false,
      "rstrip": false,
      "normalized": true,
      "special": false
    },
    {
      "id": 59253,
      "content": "Collaborative",
      "single_word": false,
      "lstrip": false,
      "rstrip": false,
      "normalized": true,
      "special": false
    },
    {
      "id": 59254,
      "content": "Mendelian",
      "single_word": false,
      "lstrip": false,
      "rstrip": false,
      "normalized": true,
      "special": false
    },
    {
      "id": 59255,
      "content": "ISI",
      "single_word": false,
      "lstrip": false,
      "rstrip": false,
      "normalized": true,
      "special": false
    },
    {
      "id": 59256,
      "content": "TTD",
      "single_word": false,
      "lstrip": false,
      "rstrip": false,
      "normalized": true,
      "special": false
    },
    {
      "id": 59257,
      "content": "genecards",
      "single_word": false,
      "lstrip": false,
      "rstrip": false,
      "normalized": true,
      "special": false
    },
    {
      "id": 59258,
      "content": "Kanehisa",
      "single_word": false,
      "lstrip": false,
      "rstrip": false,
      "normalized": true,
      "special": false
    },
    {
      "id": 59259,
      "content": "GeneBank",
      "single_word": false,
      "lstrip": false,
      "rstrip": false,
      "normalized": true,
      "special": false
    },
    {
      "id": 59260,
      "content": "Tongji",
      "single_word": false,
      "lstrip": false,
      "rstrip": false,
      "normalized": true,
      "special": false
    },
    {
      "id": 59261,
      "content": "SIAF",
      "single_word": false,
      "lstrip": false,
      "rstrip": false,
      "normalized": true,
      "special": false
    },
    {
      "id": 59262,
      "content": "TogoVar",
      "single_word": false,
      "lstrip": false,
      "rstrip": false,
      "normalized": true,
      "special": false
    },
    {
      "id": 59263,
      "content": "Liao",
      "single_word": false,
      "lstrip": false,
      "rstrip": false,
      "normalized": true,
      "special": false
    },
    {
      "id": 59264,
      "content": "Vertebrate",
      "single_word": false,
      "lstrip": false,
      "rstrip": false,
      "normalized": true,
      "special": false
    },
    {
      "id": 59265,
      "content": "CRR",
      "single_word": false,
      "lstrip": false,
      "rstrip": false,
      "normalized": true,
      "special": false
    },
    {
      "id": 59266,
      "content": "Asthma",
      "single_word": false,
      "lstrip": false,
      "rstrip": false,
      "normalized": true,
      "special": false
    },
    {
      "id": 59267,
      "content": "seqs",
      "single_word": false,
      "lstrip": false,
      "rstrip": false,
      "normalized": true,
      "special": false
    },
    {
      "id": 59268,
      "content": "viralzone",
      "single_word": false,
      "lstrip": false,
      "rstrip": false,
      "normalized": true,
      "special": false
    },
    {
      "id": 59269,
      "content": "Bost",
      "single_word": false,
      "lstrip": false,
      "rstrip": false,
      "normalized": true,
      "special": false
    },
    {
      "id": 59270,
      "content": "GISAD",
      "single_word": false,
      "lstrip": false,
      "rstrip": false,
      "normalized": true,
      "special": false
    },
    {
      "id": 59271,
      "content": "ncov",
      "single_word": false,
      "lstrip": false,
      "rstrip": false,
      "normalized": true,
      "special": false
    },
    {
      "id": 59272,
      "content": "UKCCMP",
      "single_word": false,
      "lstrip": false,
      "rstrip": false,
      "normalized": true,
      "special": false
    },
    {
      "id": 59273,
      "content": "CRA",
      "single_word": false,
      "lstrip": false,
      "rstrip": false,
      "normalized": true,
      "special": false
    },
    {
      "id": 59274,
      "content": "NCI",
      "single_word": false,
      "lstrip": false,
      "rstrip": false,
      "normalized": true,
      "special": false
    },
    {
      "id": 59275,
      "content": "Virosaurus",
      "single_word": false,
      "lstrip": false,
      "rstrip": false,
      "normalized": true,
      "special": false
    },
    {
      "id": 59276,
      "content": "ESCA",
      "single_word": false,
      "lstrip": false,
      "rstrip": false,
      "normalized": true,
      "special": false
    },
    {
      "id": 59277,
      "content": "Kupari",
      "single_word": false,
      "lstrip": false,
      "rstrip": false,
      "normalized": true,
      "special": false
    },
    {
      "id": 59278,
      "content": "STAD",
      "single_word": false,
      "lstrip": false,
      "rstrip": false,
      "normalized": true,
      "special": false
    },
    {
      "id": 59279,
      "content": "Pruitt",
      "single_word": false,
      "lstrip": false,
      "rstrip": false,
      "normalized": true,
      "special": false
    },
    {
      "id": 59280,
      "content": "Radiologists",
      "single_word": false,
      "lstrip": false,
      "rstrip": false,
      "normalized": true,
      "special": false
    },
    {
      "id": 59281,
      "content": "KEGG",
      "single_word": false,
      "lstrip": false,
      "rstrip": false,
      "normalized": true,
      "special": false
    },
    {
      "id": 59282,
      "content": "cBio",
      "single_word": false,
      "lstrip": false,
      "rstrip": false,
      "normalized": true,
      "special": false
    },
    {
      "id": 59283,
      "content": "tar",
      "single_word": false,
      "lstrip": false,
      "rstrip": false,
      "normalized": true,
      "special": false
    },
    {
      "id": 59284,
      "content": "Rusinova",
      "single_word": false,
      "lstrip": false,
      "rstrip": false,
      "normalized": true,
      "special": false
    },
    {
      "id": 59285,
      "content": "Radiotherapy",
      "single_word": false,
      "lstrip": false,
      "rstrip": false,
      "normalized": true,
      "special": false
    },
    {
      "id": 59286,
      "content": "SRA",
      "single_word": false,
      "lstrip": false,
      "rstrip": false,
      "normalized": true,
      "special": false
    },
    {
      "id": 59287,
      "content": "proteomecentral",
      "single_word": false,
      "lstrip": false,
      "rstrip": false,
      "normalized": true,
      "special": false
    },
    {
      "id": 59288,
      "content": "miRbase",
      "single_word": false,
      "lstrip": false,
      "rstrip": false,
      "normalized": true,
      "special": false
    },
    {
      "id": 59289,
      "content": "singlecell",
      "single_word": false,
      "lstrip": false,
      "rstrip": false,
      "normalized": true,
      "special": false
    },
    {
      "id": 59290,
      "content": "UKB",
      "single_word": false,
      "lstrip": false,
      "rstrip": false,
      "normalized": true,
      "special": false
    },
    {
      "id": 59291,
      "content": "Vasaikar",
      "single_word": false,
      "lstrip": false,
      "rstrip": false,
      "normalized": true,
      "special": false
    },
    {
      "id": 59292,
      "content": "EVS",
      "single_word": false,
      "lstrip": false,
      "rstrip": false,
      "normalized": true,
      "special": false
    },
    {
      "id": 59293,
      "content": "CID",
      "single_word": false,
      "lstrip": false,
      "rstrip": false,
      "normalized": true,
      "special": false
    },
    {
      "id": 59294,
      "content": "Usoskin",
      "single_word": false,
      "lstrip": false,
      "rstrip": false,
      "normalized": true,
      "special": false
    },
    {
      "id": 59295,
      "content": "Genomic",
      "single_word": false,
      "lstrip": false,
      "rstrip": false,
      "normalized": true,
      "special": false
    },
    {
      "id": 59296,
      "content": "Nucleotide",
      "single_word": false,
      "lstrip": false,
      "rstrip": false,
      "normalized": true,
      "special": false
    },
    {
      "id": 59297,
      "content": "WiseSearch",
      "single_word": false,
      "lstrip": false,
      "rstrip": false,
      "normalized": true,
      "special": false
    },
    {
      "id": 59298,
      "content": "CNP",
      "single_word": false,
      "lstrip": false,
      "rstrip": false,
      "normalized": true,
      "special": false
    },
    {
      "id": 59299,
      "content": "ChEMBL",
      "single_word": false,
      "lstrip": false,
      "rstrip": false,
      "normalized": true,
      "special": false
    },
    {
      "id": 59300,
      "content": "SRAdb",
      "single_word": false,
      "lstrip": false,
      "rstrip": false,
      "normalized": true,
      "special": false
    },
    {
      "id": 59301,
      "content": "ProteomicsDB",
      "single_word": false,
      "lstrip": false,
      "rstrip": false,
      "normalized": true,
      "special": false
    },
    {
      "id": 59302,
      "content": "LIHC",
      "single_word": false,
      "lstrip": false,
      "rstrip": false,
      "normalized": true,
      "special": false
    },
    {
      "id": 59303,
      "content": "CHEMBL",
      "single_word": false,
      "lstrip": false,
      "rstrip": false,
      "normalized": true,
      "special": false
    },
    {
      "id": 59304,
      "content": "CoV",
      "single_word": false,
      "lstrip": false,
      "rstrip": false,
      "normalized": true,
      "special": false
    },
    {
      "id": 59305,
      "content": "expasy",
      "single_word": false,
      "lstrip": false,
      "rstrip": false,
      "normalized": true,
      "special": false
    },
    {
      "id": 59306,
      "content": "nuccore",
      "single_word": false,
      "lstrip": false,
      "rstrip": false,
      "normalized": true,
      "special": false
    },
    {
      "id": 59307,
      "content": "CDC",
      "single_word": false,
      "lstrip": false,
      "rstrip": false,
      "normalized": true,
      "special": false
    },
    {
      "id": 59308,
      "content": "QHI",
      "single_word": false,
      "lstrip": false,
      "rstrip": false,
      "normalized": true,
      "special": false
    },
    {
      "id": 59309,
      "content": "GSAID",
      "single_word": false,
      "lstrip": false,
      "rstrip": false,
      "normalized": true,
      "special": false
    },
    {
      "id": 59310,
      "content": "Helmberg",
      "single_word": false,
      "lstrip": false,
      "rstrip": false,
      "normalized": true,
      "special": false
    },
    {
      "id": 59311,
      "content": "MN",
      "single_word": false,
      "lstrip": false,
      "rstrip": false,
      "normalized": true,
      "special": false
    },
    {
      "id": 59312,
      "content": "microarray",
      "single_word": false,
      "lstrip": false,
      "rstrip": false,
      "normalized": true,
      "special": false
    },
    {
      "id": 59313,
      "content": "KP",
      "single_word": false,
      "lstrip": false,
      "rstrip": false,
      "normalized": true,
      "special": false
    },
    {
      "id": 59314,
      "content": "GATEs",
      "single_word": false,
      "lstrip": false,
      "rstrip": false,
      "normalized": true,
      "special": false
    },
    {
      "id": 59315,
      "content": "QTLbase",
      "single_word": false,
      "lstrip": false,
      "rstrip": false,
      "normalized": true,
      "special": false
    },
    {
      "id": 59316,
      "content": "CNSA",
      "single_word": false,
      "lstrip": false,
      "rstrip": false,
      "normalized": true,
      "special": false
    },
    {
      "id": 59317,
      "content": "Bojkova",
      "single_word": false,
      "lstrip": false,
      "rstrip": false,
      "normalized": true,
      "special": false
    },
    {
      "id": 59318,
      "content": "KX",
      "single_word": false,
      "lstrip": false,
      "rstrip": false,
      "normalized": true,
      "special": false
    },
    {
      "id": 59319,
      "content": "internationalgenome",
      "single_word": false,
      "lstrip": false,
      "rstrip": false,
      "normalized": true,
      "special": false
    },
    {
      "id": 59320,
      "content": "NGDC",
      "single_word": false,
      "lstrip": false,
      "rstrip": false,
      "normalized": true,
      "special": false
    },
    {
      "id": 59321,
      "content": "epicentro",
      "single_word": false,
      "lstrip": false,
      "rstrip": false,
      "normalized": true,
      "special": false
    },
    {
      "id": 59322,
      "content": "Factorbook",
      "single_word": false,
      "lstrip": false,
      "rstrip": false,
      "normalized": true,
      "special": false
    },
    {
      "id": 59323,
      "content": "Ordovas",
      "single_word": false,
      "lstrip": false,
      "rstrip": false,
      "normalized": true,
      "special": false
    },
    {
      "id": 59324,
      "content": "Pubchem",
      "single_word": false,
      "lstrip": false,
      "rstrip": false,
      "normalized": true,
      "special": false
    },
    {
      "id": 59325,
      "content": "Mammalian",
      "single_word": false,
      "lstrip": false,
      "rstrip": false,
      "normalized": true,
      "special": false
    },
    {
      "id": 59326,
      "content": "ISTAT",
      "single_word": false,
      "lstrip": false,
      "rstrip": false,
      "normalized": true,
      "special": false
    },
    {
      "id": 59327,
      "content": "datasets",
      "single_word": false,
      "lstrip": false,
      "rstrip": false,
      "normalized": true,
      "special": false
    },
    {
      "id": 59328,
      "content": "Anthropometric",
      "single_word": false,
      "lstrip": false,
      "rstrip": false,
      "normalized": true,
      "special": false
    },
    {
      "id": 59329,
      "content": "UCEC",
      "single_word": false,
      "lstrip": false,
      "rstrip": false,
      "normalized": true,
      "special": false
    },
    {
      "id": 59330,
      "content": "ChemMapper",
      "single_word": false,
      "lstrip": false,
      "rstrip": false,
      "normalized": true,
      "special": false
    },
    {
      "id": 59331,
      "content": "UniProtKB",
      "single_word": false,
      "lstrip": false,
      "rstrip": false,
      "normalized": true,
      "special": false
    },
    {
      "id": 59332,
      "content": "Ashburner",
      "single_word": false,
      "lstrip": false,
      "rstrip": false,
      "normalized": true,
      "special": false
    },
    {
      "id": 59333,
      "content": "PRAD",
      "single_word": false,
      "lstrip": false,
      "rstrip": false,
      "normalized": true,
      "special": false
    },
    {
      "id": 59334,
      "content": "Sequence",
      "single_word": false,
      "lstrip": false,
      "rstrip": false,
      "normalized": true,
      "special": false
    },
    {
      "id": 59335,
      "content": "cogconsortium",
      "single_word": false,
      "lstrip": false,
      "rstrip": false,
      "normalized": true,
      "special": false
    },
    {
      "id": 59336,
      "content": "Procko",
      "single_word": false,
      "lstrip": false,
      "rstrip": false,
      "normalized": true,
      "special": false
    },
    {
      "id": 59337,
      "content": "Hospitalization",
      "single_word": false,
      "lstrip": false,
      "rstrip": false,
      "normalized": true,
      "special": false
    },
    {
      "id": 59338,
      "content": "sprinklr",
      "single_word": false,
      "lstrip": false,
      "rstrip": false,
      "normalized": true,
      "special": false
    },
    {
      "id": 59339,
      "content": "PRIDE",
      "single_word": false,
      "lstrip": false,
      "rstrip": false,
      "normalized": true,
      "special": false
    },
    {
      "id": 59340,
      "content": "PMDB",
      "single_word": false,
      "lstrip": false,
      "rstrip": false,
      "normalized": true,
      "special": false
    },
    {
      "id": 59341,
      "content": "EMD",
      "single_word": false,
      "lstrip": false,
      "rstrip": false,
      "normalized": true,
      "special": false
    },
    {
      "id": 59342,
      "content": "ALB",
      "single_word": false,
      "lstrip": false,
      "rstrip": false,
      "normalized": true,
      "special": false
    },
    {
      "id": 59343,
      "content": "Kaelberer",
      "single_word": false,
      "lstrip": false,
      "rstrip": false,
      "normalized": true,
      "special": false
    },
    {
      "id": 59344,
      "content": "civnb",
      "single_word": false,
      "lstrip": false,
      "rstrip": false,
      "normalized": true,
      "special": false
    },
    {
      "id": 59345,
      "content": "defaults",
      "single_word": false,
      "lstrip": false,
      "rstrip": false,
      "normalized": true,
      "special": false
    },
    {
      "id": 59346,
      "content": "Transcription",
      "single_word": false,
      "lstrip": false,
      "rstrip": false,
      "normalized": true,
      "special": false
    },
    {
      "id": 59347,
      "content": "SAMC",
      "single_word": false,
      "lstrip": false,
      "rstrip": false,
      "normalized": true,
      "special": false
    },
    {
      "id": 59348,
      "content": "Sungnak",
      "single_word": false,
      "lstrip": false,
      "rstrip": false,
      "normalized": true,
      "special": false
    },
    {
      "id": 59349,
      "content": "phenome",
      "single_word": false,
      "lstrip": false,
      "rstrip": false,
      "normalized": true,
      "special": false
    },
    {
      "id": 59350,
      "content": "Allergy",
      "single_word": false,
      "lstrip": false,
      "rstrip": false,
      "normalized": true,
      "special": false
    },
    {
      "id": 59351,
      "content": "bigd",
      "single_word": false,
      "lstrip": false,
      "rstrip": false,
      "normalized": true,
      "special": false
    },
    {
      "id": 59352,
      "content": "zmf",
      "single_word": false,
      "lstrip": false,
      "rstrip": false,
      "normalized": true,
      "special": false
    },
    {
      "id": 59353,
      "content": "mirwalk",
      "single_word": false,
      "lstrip": false,
      "rstrip": false,
      "normalized": true,
      "special": false
    },
    {
      "id": 59354,
      "content": "NIH",
      "single_word": false,
      "lstrip": false,
      "rstrip": false,
      "normalized": true,
      "special": false
    },
    {
      "id": 59355,
      "content": "COVID",
      "single_word": false,
      "lstrip": false,
      "rstrip": false,
      "normalized": true,
      "special": false
    },
    {
      "id": 59356,
      "content": "PXD",
      "single_word": false,
      "lstrip": false,
      "rstrip": false,
      "normalized": true,
      "special": false
    },
    {
      "id": 59357,
      "content": "Genotype",
      "single_word": false,
      "lstrip": false,
      "rstrip": false,
      "normalized": true,
      "special": false
    },
    {
      "id": 59358,
      "content": "MsigDB",
      "single_word": false,
      "lstrip": false,
      "rstrip": false,
      "normalized": true,
      "special": false
    },
    {
      "id": 59359,
      "content": "announcements",
      "single_word": false,
      "lstrip": false,
      "rstrip": false,
      "normalized": true,
      "special": false
    },
    {
      "id": 59360,
      "content": "GCA",
      "single_word": false,
      "lstrip": false,
      "rstrip": false,
      "normalized": true,
      "special": false
    },
    {
      "id": 59361,
      "content": "NHGRI",
      "single_word": false,
      "lstrip": false,
      "rstrip": false,
      "normalized": true,
      "special": false
    },
    {
      "id": 59362,
      "content": "Bui",
      "single_word": false,
      "lstrip": false,
      "rstrip": false,
      "normalized": true,
      "special": false
    },
    {
      "id": 59363,
      "content": "Ontology",
      "single_word": false,
      "lstrip": false,
      "rstrip": false,
      "normalized": true,
      "special": false
    },
    {
      "id": 59364,
      "content": "ViralZone",
      "single_word": false,
      "lstrip": false,
      "rstrip": false,
      "normalized": true,
      "special": false
    },
    {
      "id": 59365,
      "content": "Sharing",
      "single_word": false,
      "lstrip": false,
      "rstrip": false,
      "normalized": true,
      "special": false
    },
    {
      "id": 59366,
      "content": "EPI",
      "single_word": false,
      "lstrip": false,
      "rstrip": false,
      "normalized": true,
      "special": false
    },
    {
      "id": 59367,
      "content": "EpiFlu",
      "single_word": false,
      "lstrip": false,
      "rstrip": false,
      "normalized": true,
      "special": false
    },
    {
      "id": 59368,
      "content": "ECDC",
      "single_word": false,
      "lstrip": false,
      "rstrip": false,
      "normalized": true,
      "special": false
    },
    {
      "id": 59369,
      "content": "Exome",
      "single_word": false,
      "lstrip": false,
      "rstrip": false,
      "normalized": true,
      "special": false
    },
    {
      "id": 59370,
      "content": "Worldometer",
      "single_word": false,
      "lstrip": false,
      "rstrip": false,
      "normalized": true,
      "special": false
    },
    {
      "id": 59371,
      "content": "DQ",
      "single_word": false,
      "lstrip": false,
      "rstrip": false,
      "normalized": true,
      "special": false
    },
    {
      "id": 59372,
      "content": "proteomes",
      "single_word": false,
      "lstrip": false,
      "rstrip": false,
      "normalized": true,
      "special": false
    },
    {
      "id": 59373,
      "content": "sanger",
      "single_word": false,
      "lstrip": false,
      "rstrip": false,
      "normalized": true,
      "special": false
    },
    {
      "id": 59374,
      "content": "IPX",
      "single_word": false,
      "lstrip": false,
      "rstrip": false,
      "normalized": true,
      "special": false
    },
    {
      "id": 59375,
      "content": "heidelberg",
      "single_word": false,
      "lstrip": false,
      "rstrip": false,
      "normalized": true,
      "special": false
    },
    {
      "id": 59376,
      "content": "bioproject",
      "single_word": false,
      "lstrip": false,
      "rstrip": false,
      "normalized": true,
      "special": false
    },
    {
      "id": 59377,
      "content": "Dataset",
      "single_word": false,
      "lstrip": false,
      "rstrip": false,
      "normalized": true,
      "special": false
    },
    {
      "id": 59378,
      "content": "COAD",
      "single_word": false,
      "lstrip": false,
      "rstrip": false,
      "normalized": true,
      "special": false
    },
    {
      "id": 59379,
      "content": "DGIdb",
      "single_word": false,
      "lstrip": false,
      "rstrip": false,
      "normalized": true,
      "special": false
    },
    {
      "id": 59380,
      "content": "brcDocs",
      "single_word": false,
      "lstrip": false,
      "rstrip": false,
      "normalized": true,
      "special": false
    },
    {
      "id": 59381,
      "content": "UniRef",
      "single_word": false,
      "lstrip": false,
      "rstrip": false,
      "normalized": true,
      "special": false
    },
    {
      "id": 59382,
      "content": "Konsiliarlabor",
      "single_word": false,
      "lstrip": false,
      "rstrip": false,
      "normalized": true,
      "special": false
    },
    {
      "id": 59383,
      "content": "CAGE",
      "single_word": false,
      "lstrip": false,
      "rstrip": false,
      "normalized": true,
      "special": false
    },
    {
      "id": 59384,
      "content": "PDBs",
      "single_word": false,
      "lstrip": false,
      "rstrip": false,
      "normalized": true,
      "special": false
    },
    {
      "id": 59385,
      "content": "Proteome",
      "single_word": false,
      "lstrip": false,
      "rstrip": false,
      "normalized": true,
      "special": false
    },
    {
      "id": 59386,
      "content": "jacionline",
      "single_word": false,
      "lstrip": false,
      "rstrip": false,
      "normalized": true,
      "special": false
    },
    {
      "id": 59387,
      "content": "QIQ",
      "single_word": false,
      "lstrip": false,
      "rstrip": false,
      "normalized": true,
      "special": false
    },
    {
      "id": 59388,
      "content": "Trainees",
      "single_word": false,
      "lstrip": false,
      "rstrip": false,
      "normalized": true,
      "special": false
    },
    {
      "id": 59389,
      "content": "Surveillance",
      "single_word": false,
      "lstrip": false,
      "rstrip": false,
      "normalized": true,
      "special": false
    },
    {
      "id": 59390,
      "content": "QHR",
      "single_word": false,
      "lstrip": false,
      "rstrip": false,
      "normalized": true,
      "special": false
    },
    {
      "id": 59391,
      "content": "LUSC",
      "single_word": false,
      "lstrip": false,
      "rstrip": false,
      "normalized": true,
      "special": false
    },
    {
      "id": 59392,
      "content": "IEDB",
      "single_word": false,
      "lstrip": false,
      "rstrip": false,
      "normalized": true,
      "special": false
    },
    {
      "id": 59393,
      "content": "Prediction",
      "single_word": false,
      "lstrip": false,
      "rstrip": false,
      "normalized": true,
      "special": false
    },
    {
      "id": 59394,
      "content": "Merrett",
      "single_word": false,
      "lstrip": false,
      "rstrip": false,
      "normalized": true,
      "special": false
    },
    {
      "id": 59395,
      "content": "GenPept",
      "single_word": false,
      "lstrip": false,
      "rstrip": false,
      "normalized": true,
      "special": false
    },
    {
      "id": 59396,
      "content": "pbmc",
      "single_word": false,
      "lstrip": false,
      "rstrip": false,
      "normalized": true,
      "special": false
    },
    {
      "id": 59397,
      "content": "Knowledgebase",
      "single_word": false,
      "lstrip": false,
      "rstrip": false,
      "normalized": true,
      "special": false
    },
    {
      "id": 59398,
      "content": "Karczewski",
      "single_word": false,
      "lstrip": false,
      "rstrip": false,
      "normalized": true,
      "special": false
    },
    {
      "id": 59399,
      "content": "nanpdb",
      "single_word": false,
      "lstrip": false,
      "rstrip": false,
      "normalized": true,
      "special": false
    },
    {
      "id": 59400,
      "content": "cngb",
      "single_word": false,
      "lstrip": false,
      "rstrip": false,
      "normalized": true,
      "special": false
    },
    {
      "id": 59401,
      "content": "Montanes",
      "single_word": false,
      "lstrip": false,
      "rstrip": false,
      "normalized": true,
      "special": false
    },
    {
      "id": 59402,
      "content": "Toxicogenomics",
      "single_word": false,
      "lstrip": false,
      "rstrip": false,
      "normalized": true,
      "special": false
    },
    {
      "id": 59403,
      "content": "Giovannini",
      "single_word": false,
      "lstrip": false,
      "rstrip": false,
      "normalized": true,
      "special": false
    },
    {
      "id": 59404,
      "content": "Rheumatology",
      "single_word": false,
      "lstrip": false,
      "rstrip": false,
      "normalized": true,
      "special": false
    },
    {
      "id": 59405,
      "content": "MISAN",
      "single_word": false,
      "lstrip": false,
      "rstrip": false,
      "normalized": true,
      "special": false
    },
    {
      "id": 59406,
      "content": "Uniprot",
      "single_word": false,
      "lstrip": false,
      "rstrip": false,
      "normalized": true,
      "special": false
    },
    {
      "id": 59407,
      "content": "Schmiedel",
      "single_word": false,
      "lstrip": false,
      "rstrip": false,
      "normalized": true,
      "special": false
    },
    {
      "id": 59408,
      "content": "PRJNA",
      "single_word": false,
      "lstrip": false,
      "rstrip": false,
      "normalized": true,
      "special": false
    },
    {
      "id": 59409,
      "content": "ViPR",
      "single_word": false,
      "lstrip": false,
      "rstrip": false,
      "normalized": true,
      "special": false
    },
    {
      "id": 59410,
      "content": "Gierahn",
      "single_word": false,
      "lstrip": false,
      "rstrip": false,
      "normalized": true,
      "special": false
    },
    {
      "id": 59411,
      "content": "miRBase",
      "single_word": false,
      "lstrip": false,
      "rstrip": false,
      "normalized": true,
      "special": false
    },
    {
      "id": 59412,
      "content": "dashboard",
      "single_word": false,
      "lstrip": false,
      "rstrip": false,
      "normalized": true,
      "special": false
    },
    {
      "id": 59413,
      "content": "NPASS",
      "single_word": false,
      "lstrip": false,
      "rstrip": false,
      "normalized": true,
      "special": false
    },
    {
      "id": 59414,
      "content": "Omnibus",
      "single_word": false,
      "lstrip": false,
      "rstrip": false,
      "normalized": true,
      "special": false
    },
    {
      "id": 59415,
      "content": "KIRC",
      "single_word": false,
      "lstrip": false,
      "rstrip": false,
      "normalized": true,
      "special": false
    },
    {
      "id": 59416,
      "content": "TissueAtlas",
      "single_word": false,
      "lstrip": false,
      "rstrip": false,
      "normalized": true,
      "special": false
    },
    {
      "id": 59417,
      "content": "Microscopy",
      "single_word": false,
      "lstrip": false,
      "rstrip": false,
      "normalized": true,
      "special": false
    },
    {
      "id": 59418,
      "content": "GTEx",
      "single_word": false,
      "lstrip": false,
      "rstrip": false,
      "normalized": true,
      "special": false
    },
    {
      "id": 59419,
      "content": "BioProject",
      "single_word": false,
      "lstrip": false,
      "rstrip": false,
      "normalized": true,
      "special": false
    },
    {
      "id": 59420,
      "content": "browse",
      "single_word": false,
      "lstrip": false,
      "rstrip": false,
      "normalized": true,
      "special": false
    },
    {
      "id": 59421,
      "content": "uniref",
      "single_word": false,
      "lstrip": false,
      "rstrip": false,
      "normalized": true,
      "special": false
    },
    {
      "id": 59422,
      "content": "GISAID",
      "single_word": false,
      "lstrip": false,
      "rstrip": false,
      "normalized": true,
      "special": false
    },
    {
      "id": 59423,
      "content": "idrblab",
      "single_word": false,
      "lstrip": false,
      "rstrip": false,
      "normalized": true,
      "special": false
    },
    {
      "id": 59424,
      "content": "ftp",
      "single_word": false,
      "lstrip": false,
      "rstrip": false,
      "normalized": true,
      "special": false
    },
    {
      "id": 59425,
      "content": "Expression",
      "single_word": false,
      "lstrip": false,
      "rstrip": false,
      "normalized": true,
      "special": false
    },
    {
      "id": 59426,
      "content": "WH",
      "single_word": false,
      "lstrip": false,
      "rstrip": false,
      "normalized": true,
      "special": false
    },
    {
      "id": 59427,
      "content": "IPR",
      "single_word": false,
      "lstrip": false,
      "rstrip": false,
      "normalized": true,
      "special": false
    },
    {
      "id": 59428,
      "content": "Gleizes",
      "single_word": false,
      "lstrip": false,
      "rstrip": false,
      "normalized": true,
      "special": false
    },
    {
      "id": 59429,
      "content": "QII",
      "single_word": false,
      "lstrip": false,
      "rstrip": false,
      "normalized": true,
      "special": false
    },
    {
      "id": 59430,
      "content": "BLCA",
      "single_word": false,
      "lstrip": false,
      "rstrip": false,
      "normalized": true,
      "special": false
    },
    {
      "id": 59431,
      "content": "RefSeq",
      "single_word": false,
      "lstrip": false,
      "rstrip": false,
      "normalized": true,
      "special": false
    },
    {
      "id": 59432,
      "content": "NIAID",
      "single_word": false,
      "lstrip": false,
      "rstrip": false,
      "normalized": true,
      "special": false
    },
    {
      "id": 59433,
      "content": "Proteomic",
      "single_word": false,
      "lstrip": false,
      "rstrip": false,
      "normalized": true,
      "special": false
    },
    {
      "id": 59434,
      "content": "TCMSP",
      "single_word": false,
      "lstrip": false,
      "rstrip": false,
      "normalized": true,
      "special": false
    },
    {
      "id": 59435,
      "content": "Carneiro",
      "single_word": false,
      "lstrip": false,
      "rstrip": false,
      "normalized": true,
      "special": false
    },
    {
      "id": 59436,
      "content": "SRP",
      "single_word": false,
      "lstrip": false,
      "rstrip": false,
      "normalized": true,
      "special": false
    }
  ],
  "normalizer": {
    "type": "BertNormalizer",
    "clean_text": true,
    "handle_chinese_chars": true,
    "strip_accents": null,
    "lowercase": false
  },
  "pre_tokenizer": {
    "type": "BertPreTokenizer"
  },
  "post_processor": {
    "type": "TemplateProcessing",
    "single": [
      {
        "SpecialToken": {
          "id": "[CLS]",
          "type_id": 0
        }
      },
      {
        "Sequence": {
          "id": "A",
          "type_id": 0
        }
      },
      {
        "SpecialToken": {
          "id": "[SEP]",
          "type_id": 0
        }
      }
    ],
    "pair": [
      {
        "SpecialToken": {
          "id": "[CLS]",
          "type_id": 0
        }
      },
      {
        "Sequence": {
          "id": "A",
          "type_id": 0
        }
      },
      {
        "SpecialToken": {
          "id": "[SEP]",
          "type_id": 0
        }
      },
      {
        "Sequence": {
          "id": "B",
          "type_id": 1
        }
      },
      {
        "SpecialToken": {
          "id": "[SEP]",
          "type_id": 1
        }
      }
    ],
    "special_tokens": {
      "[CLS]": {
        "id": "[CLS]",
        "ids": [
          101
        ],
        "tokens": [
          "[CLS]"
        ]
      },
      "[SEP]": {
        "id": "[SEP]",
        "ids": [
          102
        ],
        "tokens": [
          "[SEP]"
        ]
      }
    }
  },
  "decoder": {
    "type": "WordPiece",
    "prefix": "##",
    "cleanup": true
  },
  "model": {
    "type": "WordPiece",
    "unk_token": "[UNK]",
    "continuing_subword_prefix": "##",
    "max_input_chars_per_word": 100,
    "vocab": {
      "[PAD]": 0,
      "[unused1]": 1,
      "[unused2]": 2,
      "[unused3]": 3,
      "[unused4]": 4,
      "[unused5]": 5,
      "[unused6]": 6,
      "[unused7]": 7,
      "[unused8]": 8,
      "[unused9]": 9,
      "[unused10]": 10,
      "[unused11]": 11,
      "[unused12]": 12,
      "[unused13]": 13,
      "[unused14]": 14,
      "[unused15]": 15,
      "[unused16]": 16,
      "[unused17]": 17,
      "[unused18]": 18,
      "[unused19]": 19,
      "[unused20]": 20,
      "[unused21]": 21,
      "[unused22]": 22,
      "[unused23]": 23,
      "[unused24]": 24,
      "[unused25]": 25,
      "[unused26]": 26,
      "[unused27]": 27,
      "[unused28]": 28,
      "[unused29]": 29,
      "[unused30]": 30,
      "[unused31]": 31,
      "[unused32]": 32,
      "[unused33]": 33,
      "[unused34]": 34,
      "[unused35]": 35,
      "[unused36]": 36,
      "[unused37]": 37,
      "[unused38]": 38,
      "[unused39]": 39,
      "[unused40]": 40,
      "[unused41]": 41,
      "[unused42]": 42,
      "[unused43]": 43,
      "[unused44]": 44,
      "[unused45]": 45,
      "[unused46]": 46,
      "[unused47]": 47,
      "[unused48]": 48,
      "[unused49]": 49,
      "[unused50]": 50,
      "[unused51]": 51,
      "[unused52]": 52,
      "[unused53]": 53,
      "[unused54]": 54,
      "[unused55]": 55,
      "[unused56]": 56,
      "[unused57]": 57,
      "[unused58]": 58,
      "[unused59]": 59,
      "[unused60]": 60,
      "[unused61]": 61,
      "[unused62]": 62,
      "[unused63]": 63,
      "[unused64]": 64,
      "[unused65]": 65,
      "[unused66]": 66,
      "[unused67]": 67,
      "[unused68]": 68,
      "[unused69]": 69,
      "[unused70]": 70,
      "[unused71]": 71,
      "[unused72]": 72,
      "[unused73]": 73,
      "[unused74]": 74,
      "[unused75]": 75,
      "[unused76]": 76,
      "[unused77]": 77,
      "[unused78]": 78,
      "[unused79]": 79,
      "[unused80]": 80,
      "[unused81]": 81,
      "[unused82]": 82,
      "[unused83]": 83,
      "[unused84]": 84,
      "[unused85]": 85,
      "[unused86]": 86,
      "[unused87]": 87,
      "[unused88]": 88,
      "[unused89]": 89,
      "[unused90]": 90,
      "[unused91]": 91,
      "[unused92]": 92,
      "[unused93]": 93,
      "[unused94]": 94,
      "[unused95]": 95,
      "[unused96]": 96,
      "[unused97]": 97,
      "[unused98]": 98,
      "[unused99]": 99,
      "[UNK]": 100,
      "[CLS]": 101,
      "[SEP]": 102,
      "[MASK]": 103,
      "[unused100]": 104,
      "[unused101]": 105,
      "!": 106,
      "\"": 107,
      "#": 108,
      "$": 109,
      "%": 110,
      "&": 111,
      "'": 112,
      "(": 113,
      ")": 114,
      "*": 115,
      "+": 116,
      ",": 117,
      "-": 118,
      ".": 119,
      "/": 120,
      "0": 121,
      "1": 122,
      "2": 123,
      "3": 124,
      "4": 125,
      "5": 126,
      "6": 127,
      "7": 128,
      "8": 129,
      "9": 130,
      ":": 131,
      ";": 132,
      "<": 133,
      "=": 134,
      ">": 135,
      "?": 136,
      "@": 137,
      "A": 138,
      "B": 139,
      "C": 140,
      "D": 141,
      "E": 142,
      "F": 143,
      "G": 144,
      "H": 145,
      "I": 146,
      "J": 147,
      "K": 148,
      "L": 149,
      "M": 150,
      "N": 151,
      "O": 152,
      "P": 153,
      "Q": 154,
      "R": 155,
      "S": 156,
      "T": 157,
      "U": 158,
      "V": 159,
      "W": 160,
      "X": 161,
      "Y": 162,
      "Z": 163,
      "[": 164,
      "\\": 165,
      "]": 166,
      "^": 167,
      "_": 168,
      "`": 169,
      "a": 170,
      "b": 171,
      "c": 172,
      "d": 173,
      "e": 174,
      "f": 175,
      "g": 176,
      "h": 177,
      "i": 178,
      "j": 179,
      "k": 180,
      "l": 181,
      "m": 182,
      "n": 183,
      "o": 184,
      "p": 185,
      "q": 186,
      "r": 187,
      "s": 188,
      "t": 189,
      "u": 190,
      "v": 191,
      "w": 192,
      "x": 193,
      "y": 194,
      "z": 195,
      "{": 196,
      "|": 197,
      "}": 198,
      "~": 199,
      "¡": 200,
      "¢": 201,
      "£": 202,
      "¥": 203,
      "§": 204,
      "¨": 205,
      "©": 206,
      "ª": 207,
      "«": 208,
      "¬": 209,
      "®": 210,
      "°": 211,
      "±": 212,
      "²": 213,
      "³": 214,
      "´": 215,
      "µ": 216,
      "¶": 217,
      "·": 218,
      "¹": 219,
      "º": 220,
      "»": 221,
      "¼": 222,
      "½": 223,
      "¾": 224,
      "¿": 225,
      "À": 226,
      "Á": 227,
      "Â": 228,
      "Ä": 229,
      "Å": 230,
      "Æ": 231,
      "Ç": 232,
      "È": 233,
      "É": 234,
      "Í": 235,
      "Î": 236,
      "Ñ": 237,
      "Ó": 238,
      "Ö": 239,
      "×": 240,
      "Ø": 241,
      "Ú": 242,
      "Ü": 243,
      "Þ": 244,
      "ß": 245,
      "à": 246,
      "á": 247,
      "â": 248,
      "ã": 249,
      "ä": 250,
      "å": 251,
      "æ": 252,
      "ç": 253,
      "è": 254,
      "é": 255,
      "ê": 256,
      "ë": 257,
      "ì": 258,
      "í": 259,
      "î": 260,
      "ï": 261,
      "ð": 262,
      "ñ": 263,
      "ò": 264,
      "ó": 265,
      "ô": 266,
      "õ": 267,
      "ö": 268,
      "÷": 269,
      "ø": 270,
      "ù": 271,
      "ú": 272,
      "û": 273,
      "ü": 274,
      "ý": 275,
      "þ": 276,
      "ÿ": 277,
      "Ā": 278,
      "ā": 279,
      "ă": 280,
      "ą": 281,
      "Ć": 282,
      "ć": 283,
      "Č": 284,
      "č": 285,
      "ď": 286,
      "Đ": 287,
      "đ": 288,
      "ē": 289,
      "ė": 290,
      "ę": 291,
      "ě": 292,
      "ğ": 293,
      "ġ": 294,
      "Ħ": 295,
      "ħ": 296,
      "ĩ": 297,
      "Ī": 298,
      "ī": 299,
      "İ": 300,
      "ı": 301,
      "ļ": 302,
      "Ľ": 303,
      "ľ": 304,
      "Ł": 305,
      "ł": 306,
      "ń": 307,
      "ņ": 308,
      "ň": 309,
      "ŋ": 310,
      "Ō": 311,
      "ō": 312,
      "ŏ": 313,
      "ő": 314,
      "Œ": 315,
      "œ": 316,
      "ř": 317,
      "Ś": 318,
      "ś": 319,
      "Ş": 320,
      "ş": 321,
      "Š": 322,
      "š": 323,
      "Ţ": 324,
      "ţ": 325,
      "ť": 326,
      "ũ": 327,
      "ū": 328,
      "ŭ": 329,
      "ů": 330,
      "ű": 331,
      "ų": 332,
      "ŵ": 333,
      "ŷ": 334,
      "ź": 335,
      "Ż": 336,
      "ż": 337,
      "Ž": 338,
      "ž": 339,
      "Ə": 340,
      "ƒ": 341,
      "ơ": 342,
      "ư": 343,
      "ǎ": 344,
      "ǐ": 345,
      "ǒ": 346,
      "ǔ": 347,
      "ǫ": 348,
      "Ș": 349,
      "ș": 350,
      "Ț": 351,
      "ț": 352,
      "ɐ": 353,
      "ɑ": 354,
      "ɔ": 355,
      "ɕ": 356,
      "ə": 357,
      "ɛ": 358,
      "ɡ": 359,
      "ɣ": 360,
      "ɨ": 361,
      "ɪ": 362,
      "ɲ": 363,
      "ɾ": 364,
      "ʀ": 365,
      "ʁ": 366,
      "ʂ": 367,
      "ʃ": 368,
      "ʊ": 369,
      "ʋ": 370,
      "ʌ": 371,
      "ʐ": 372,
      "ʑ": 373,
      "ʒ": 374,
      "ʔ": 375,
      "ʰ": 376,
      "ʲ": 377,
      "ʳ": 378,
      "ʷ": 379,
      "ʻ": 380,
      "ʼ": 381,
      "ʾ": 382,
      "ʿ": 383,
      "ˈ": 384,
      "ː": 385,
      "ˡ": 386,
      "ˢ": 387,
      "ˣ": 388,
      "́": 389,
      "̃": 390,
      "̍": 391,
      "̯": 392,
      "͡": 393,
      "Α": 394,
      "Β": 395,
      "Γ": 396,
      "Δ": 397,
      "Ε": 398,
      "Η": 399,
      "Θ": 400,
      "Ι": 401,
      "Κ": 402,
      "Λ": 403,
      "Μ": 404,
      "Ν": 405,
      "Ο": 406,
      "Π": 407,
      "Σ": 408,
      "Τ": 409,
      "Φ": 410,
      "Χ": 411,
      "Ψ": 412,
      "Ω": 413,
      "ά": 414,
      "έ": 415,
      "ή": 416,
      "ί": 417,
      "α": 418,
      "β": 419,
      "γ": 420,
      "δ": 421,
      "ε": 422,
      "ζ": 423,
      "η": 424,
      "θ": 425,
      "ι": 426,
      "κ": 427,
      "λ": 428,
      "μ": 429,
      "ν": 430,
      "ξ": 431,
      "ο": 432,
      "π": 433,
      "ρ": 434,
      "ς": 435,
      "σ": 436,
      "τ": 437,
      "υ": 438,
      "φ": 439,
      "χ": 440,
      "ψ": 441,
      "ω": 442,
      "ό": 443,
      "ύ": 444,
      "ώ": 445,
      "І": 446,
      "Ј": 447,
      "А": 448,
      "Б": 449,
      "В": 450,
      "Г": 451,
      "Д": 452,
      "Е": 453,
      "Ж": 454,
      "З": 455,
      "И": 456,
      "К": 457,
      "Л": 458,
      "М": 459,
      "Н": 460,
      "О": 461,
      "П": 462,
      "Р": 463,
      "С": 464,
      "Т": 465,
      "У": 466,
      "Ф": 467,
      "Х": 468,
      "Ц": 469,
      "Ч": 470,
      "Ш": 471,
      "Э": 472,
      "Ю": 473,
      "Я": 474,
      "а": 475,
      "б": 476,
      "в": 477,
      "г": 478,
      "д": 479,
      "е": 480,
      "ж": 481,
      "з": 482,
      "и": 483,
      "й": 484,
      "к": 485,
      "л": 486,
      "м": 487,
      "н": 488,
      "о": 489,
      "п": 490,
      "р": 491,
      "с": 492,
      "т": 493,
      "у": 494,
      "ф": 495,
      "х": 496,
      "ц": 497,
      "ч": 498,
      "ш": 499,
      "щ": 500,
      "ъ": 501,
      "ы": 502,
      "ь": 503,
      "э": 504,
      "ю": 505,
      "я": 506,
      "ё": 507,
      "і": 508,
      "ї": 509,
      "ј": 510,
      "њ": 511,
      "ћ": 512,
      "Ա": 513,
      "Հ": 514,
      "ա": 515,
      "ե": 516,
      "ի": 517,
      "կ": 518,
      "մ": 519,
      "յ": 520,
      "ն": 521,
      "ո": 522,
      "ս": 523,
      "տ": 524,
      "ր": 525,
      "ւ": 526,
      "ְ": 527,
      "ִ": 528,
      "ֵ": 529,
      "ֶ": 530,
      "ַ": 531,
      "ָ": 532,
      "ֹ": 533,
      "ּ": 534,
      "א": 535,
      "ב": 536,
      "ג": 537,
      "ד": 538,
      "ה": 539,
      "ו": 540,
      "ז": 541,
      "ח": 542,
      "ט": 543,
      "י": 544,
      "כ": 545,
      "ל": 546,
      "ם": 547,
      "מ": 548,
      "ן": 549,
      "נ": 550,
      "ס": 551,
      "ע": 552,
      "פ": 553,
      "צ": 554,
      "ק": 555,
      "ר": 556,
      "ש": 557,
      "ת": 558,
      "،": 559,
      "ء": 560,
      "آ": 561,
      "أ": 562,
      "إ": 563,
      "ئ": 564,
      "ا": 565,
      "ب": 566,
      "ة": 567,
      "ت": 568,
      "ث": 569,
      "ج": 570,
      "ح": 571,
      "خ": 572,
      "د": 573,
      "ذ": 574,
      "ر": 575,
      "ز": 576,
      "س": 577,
      "ش": 578,
      "ص": 579,
      "ض": 580,
      "ط": 581,
      "ظ": 582,
      "ع": 583,
      "غ": 584,
      "ف": 585,
      "ق": 586,
      "ك": 587,
      "ل": 588,
      "م": 589,
      "ن": 590,
      "ه": 591,
      "و": 592,
      "ى": 593,
      "ي": 594,
      "َ": 595,
      "ِ": 596,
      "ٹ": 597,
      "پ": 598,
      "چ": 599,
      "ک": 600,
      "گ": 601,
      "ہ": 602,
      "ی": 603,
      "ے": 604,
      "ं": 605,
      "आ": 606,
      "क": 607,
      "ग": 608,
      "च": 609,
      "ज": 610,
      "ण": 611,
      "त": 612,
      "द": 613,
      "ध": 614,
      "न": 615,
      "प": 616,
      "ब": 617,
      "भ": 618,
      "म": 619,
      "य": 620,
      "र": 621,
      "ल": 622,
      "व": 623,
      "श": 624,
      "ष": 625,
      "स": 626,
      "ह": 627,
      "ा": 628,
      "ि": 629,
      "ी": 630,
      "ु": 631,
      "े": 632,
      "ो": 633,
      "्": 634,
      "।": 635,
      "॥": 636,
      "আ": 637,
      "ই": 638,
      "এ": 639,
      "ও": 640,
      "ক": 641,
      "খ": 642,
      "গ": 643,
      "চ": 644,
      "ছ": 645,
      "জ": 646,
      "ট": 647,
      "ত": 648,
      "থ": 649,
      "দ": 650,
      "ধ": 651,
      "ন": 652,
      "প": 653,
      "ব": 654,
      "ম": 655,
      "য": 656,
      "র": 657,
      "ল": 658,
      "শ": 659,
      "স": 660,
      "হ": 661,
      "়": 662,
      "া": 663,
      "ি": 664,
      "ী": 665,
      "ু": 666,
      "ে": 667,
      "ো": 668,
      "্": 669,
      "য়": 670,
      "க": 671,
      "த": 672,
      "ப": 673,
      "ம": 674,
      "ய": 675,
      "ர": 676,
      "ல": 677,
      "வ": 678,
      "ா": 679,
      "ி": 680,
      "ு": 681,
      "்": 682,
      "ร": 683,
      "་": 684,
      "ག": 685,
      "ང": 686,
      "ད": 687,
      "ན": 688,
      "བ": 689,
      "མ": 690,
      "ར": 691,
      "ལ": 692,
      "ས": 693,
      "ི": 694,
      "ུ": 695,
      "ེ": 696,
      "ོ": 697,
      "ა": 698,
      "ე": 699,
      "ი": 700,
      "ლ": 701,
      "ნ": 702,
      "ო": 703,
      "რ": 704,
      "ს": 705,
      "ᴬ": 706,
      "ᴵ": 707,
      "ᵀ": 708,
      "ᵃ": 709,
      "ᵇ": 710,
      "ᵈ": 711,
      "ᵉ": 712,
      "ᵍ": 713,
      "ᵏ": 714,
      "ᵐ": 715,
      "ᵒ": 716,
      "ᵖ": 717,
      "ᵗ": 718,
      "ᵘ": 719,
      "ᵢ": 720,
      "ᵣ": 721,
      "ᵤ": 722,
      "ᵥ": 723,
      "ᶜ": 724,
      "ᶠ": 725,
      "ḍ": 726,
      "Ḥ": 727,
      "ḥ": 728,
      "Ḩ": 729,
      "ḩ": 730,
      "ḳ": 731,
      "ṃ": 732,
      "ṅ": 733,
      "ṇ": 734,
      "ṛ": 735,
      "ṣ": 736,
      "ṭ": 737,
      "ạ": 738,
      "ả": 739,
      "ấ": 740,
      "ầ": 741,
      "ẩ": 742,
      "ậ": 743,
      "ắ": 744,
      "ế": 745,
      "ề": 746,
      "ể": 747,
      "ễ": 748,
      "ệ": 749,
      "ị": 750,
      "ọ": 751,
      "ố": 752,
      "ồ": 753,
      "ổ": 754,
      "ộ": 755,
      "ớ": 756,
      "ờ": 757,
      "ợ": 758,
      "ụ": 759,
      "ủ": 760,
      "ứ": 761,
      "ừ": 762,
      "ử": 763,
      "ữ": 764,
      "ự": 765,
      "ỳ": 766,
      "ỹ": 767,
      "ἀ": 768,
      "ἐ": 769,
      "ὁ": 770,
      "ὐ": 771,
      "ὰ": 772,
      "ὶ": 773,
      "ὸ": 774,
      "ῆ": 775,
      "ῖ": 776,
      "ῦ": 777,
      "ῶ": 778,
      "‐": 779,
      "‑": 780,
      "‒": 781,
      "–": 782,
      "—": 783,
      "―": 784,
      "‖": 785,
      "‘": 786,
      "’": 787,
      "‚": 788,
      "“": 789,
      "”": 790,
      "„": 791,
      "†": 792,
      "‡": 793,
      "•": 794,
      "…": 795,
      "‰": 796,
      "′": 797,
      "″": 798,
      "⁄": 799,
      "⁰": 800,
      "ⁱ": 801,
      "⁴": 802,
      "⁵": 803,
      "⁶": 804,
      "⁷": 805,
      "⁸": 806,
      "⁹": 807,
      "⁺": 808,
      "⁻": 809,
      "ⁿ": 810,
      "₀": 811,
      "₁": 812,
      "₂": 813,
      "₃": 814,
      "₄": 815,
      "₅": 816,
      "₆": 817,
      "₇": 818,
      "₈": 819,
      "₉": 820,
      "₊": 821,
      "₍": 822,
      "₎": 823,
      "ₐ": 824,
      "ₑ": 825,
      "ₒ": 826,
      "ₓ": 827,
      "ₕ": 828,
      "ₖ": 829,
      "ₘ": 830,
      "ₙ": 831,
      "ₚ": 832,
      "ₛ": 833,
      "ₜ": 834,
      "₤": 835,
      "€": 836,
      "₱": 837,
      "₹": 838,
      "ℓ": 839,
      "№": 840,
      "ℝ": 841,
      "⅓": 842,
      "←": 843,
      "↑": 844,
      "→": 845,
      "↔": 846,
      "⇌": 847,
      "⇒": 848,
      "∂": 849,
      "∈": 850,
      "−": 851,
      "∗": 852,
      "∘": 853,
      "√": 854,
      "∞": 855,
      "∧": 856,
      "∨": 857,
      "∩": 858,
      "∪": 859,
      "≈": 860,
      "≠": 861,
      "≡": 862,
      "≤": 863,
      "≥": 864,
      "⊂": 865,
      "⊆": 866,
      "⊕": 867,
      "⋅": 868,
      "─": 869,
      "│": 870,
      "■": 871,
      "●": 872,
      "★": 873,
      "☆": 874,
      "☉": 875,
      "♠": 876,
      "♣": 877,
      "♥": 878,
      "♦": 879,
      "♭": 880,
      "♯": 881,
      "⟨": 882,
      "⟩": 883,
      "ⱼ": 884,
      "、": 885,
      "。": 886,
      "《": 887,
      "》": 888,
      "「": 889,
      "」": 890,
      "『": 891,
      "』": 892,
      "〜": 893,
      "い": 894,
      "う": 895,
      "え": 896,
      "お": 897,
      "か": 898,
      "き": 899,
      "く": 900,
      "け": 901,
      "こ": 902,
      "さ": 903,
      "し": 904,
      "す": 905,
      "せ": 906,
      "そ": 907,
      "た": 908,
      "ち": 909,
      "つ": 910,
      "て": 911,
      "と": 912,
      "な": 913,
      "に": 914,
      "の": 915,
      "は": 916,
      "ひ": 917,
      "ま": 918,
      "み": 919,
      "む": 920,
      "め": 921,
      "も": 922,
      "や": 923,
      "ゆ": 924,
      "よ": 925,
      "ら": 926,
      "り": 927,
      "る": 928,
      "れ": 929,
      "ん": 930,
      "ア": 931,
      "ィ": 932,
      "イ": 933,
      "ウ": 934,
      "エ": 935,
      "オ": 936,
      "カ": 937,
      "ガ": 938,
      "キ": 939,
      "ク": 940,
      "グ": 941,
      "コ": 942,
      "サ": 943,
      "シ": 944,
      "ジ": 945,
      "ス": 946,
      "ズ": 947,
      "タ": 948,
      "ダ": 949,
      "ッ": 950,
      "テ": 951,
      "デ": 952,
      "ト": 953,
      "ド": 954,
      "ナ": 955,
      "ニ": 956,
      "ハ": 957,
      "バ": 958,
      "パ": 959,
      "フ": 960,
      "ブ": 961,
      "プ": 962,
      "マ": 963,
      "ミ": 964,
      "ム": 965,
      "ャ": 966,
      "ュ": 967,
      "ラ": 968,
      "リ": 969,
      "ル": 970,
      "レ": 971,
      "ロ": 972,
      "ン": 973,
      "・": 974,
      "ー": 975,
      "一": 976,
      "三": 977,
      "上": 978,
      "下": 979,
      "中": 980,
      "事": 981,
      "二": 982,
      "井": 983,
      "京": 984,
      "人": 985,
      "亻": 986,
      "仁": 987,
      "佐": 988,
      "侍": 989,
      "光": 990,
      "公": 991,
      "力": 992,
      "北": 993,
      "十": 994,
      "南": 995,
      "原": 996,
      "口": 997,
      "史": 998,
      "司": 999,
      "吉": 1000,
      "同": 1001,
      "和": 1002,
      "囗": 1003,
      "国": 1004,
      "國": 1005,
      "土": 1006,
      "城": 1007,
      "士": 1008,
      "大": 1009,
      "天": 1010,
      "太": 1011,
      "夫": 1012,
      "女": 1013,
      "子": 1014,
      "宀": 1015,
      "安": 1016,
      "宮": 1017,
      "宿": 1018,
      "小": 1019,
      "尚": 1020,
      "山": 1021,
      "島": 1022,
      "川": 1023,
      "州": 1024,
      "平": 1025,
      "年": 1026,
      "心": 1027,
      "愛": 1028,
      "戸": 1029,
      "文": 1030,
      "新": 1031,
      "方": 1032,
      "日": 1033,
      "明": 1034,
      "星": 1035,
      "書": 1036,
      "月": 1037,
      "木": 1038,
      "本": 1039,
      "李": 1040,
      "村": 1041,
      "東": 1042,
      "松": 1043,
      "林": 1044,
      "正": 1045,
      "武": 1046,
      "氏": 1047,
      "水": 1048,
      "氵": 1049,
      "江": 1050,
      "河": 1051,
      "海": 1052,
      "版": 1053,
      "犬": 1054,
      "王": 1055,
      "生": 1056,
      "田": 1057,
      "白": 1058,
      "皇": 1059,
      "省": 1060,
      "真": 1061,
      "石": 1062,
      "社": 1063,
      "神": 1064,
      "竹": 1065,
      "美": 1066,
      "義": 1067,
      "花": 1068,
      "藤": 1069,
      "西": 1070,
      "谷": 1071,
      "車": 1072,
      "辶": 1073,
      "道": 1074,
      "郎": 1075,
      "郡": 1076,
      "部": 1077,
      "野": 1078,
      "金": 1079,
      "長": 1080,
      "門": 1081,
      "陽": 1082,
      "青": 1083,
      "食": 1084,
      "馬": 1085,
      "高": 1086,
      "龍": 1087,
      "龸": 1088,
      "사": 1089,
      "씨": 1090,
      "의": 1091,
      "이": 1092,
      "한": 1093,
      "ﬁ": 1094,
      "ﬂ": 1095,
      "！": 1096,
      "（": 1097,
      "）": 1098,
      "，": 1099,
      "－": 1100,
      "／": 1101,
      "：": 1102,
      "the": 1103,
      "of": 1104,
      "and": 1105,
      "to": 1106,
      "in": 1107,
      "was": 1108,
      "The": 1109,
      "is": 1110,
      "for": 1111,
      "as": 1112,
      "on": 1113,
      "with": 1114,
      "that": 1115,
      "##s": 1116,
      "his": 1117,
      "by": 1118,
      "he": 1119,
      "at": 1120,
      "from": 1121,
      "it": 1122,
      "her": 1123,
      "He": 1124,
      "had": 1125,
      "an": 1126,
      "were": 1127,
      "you": 1128,
      "be": 1129,
      "In": 1130,
      "she": 1131,
      "are": 1132,
      "but": 1133,
      "which": 1134,
      "It": 1135,
      "not": 1136,
      "or": 1137,
      "have": 1138,
      "my": 1139,
      "him": 1140,
      "one": 1141,
      "this": 1142,
      "me": 1143,
      "has": 1144,
      "also": 1145,
      "up": 1146,
      "their": 1147,
      "first": 1148,
      "out": 1149,
      "who": 1150,
      "been": 1151,
      "they": 1152,
      "She": 1153,
      "into": 1154,
      "all": 1155,
      "would": 1156,
      "its": 1157,
      "##ing": 1158,
      "time": 1159,
      "two": 1160,
      "##a": 1161,
      "##e": 1162,
      "said": 1163,
      "about": 1164,
      "when": 1165,
      "over": 1166,
      "more": 1167,
      "other": 1168,
      "can": 1169,
      "after": 1170,
      "back": 1171,
      "them": 1172,
      "then": 1173,
      "##ed": 1174,
      "there": 1175,
      "like": 1176,
      "so": 1177,
      "only": 1178,
      "##n": 1179,
      "could": 1180,
      "##d": 1181,
      "##i": 1182,
      "##y": 1183,
      "what": 1184,
      "no": 1185,
      "##o": 1186,
      "where": 1187,
      "This": 1188,
      "made": 1189,
      "than": 1190,
      "if": 1191,
      "You": 1192,
      "##ly": 1193,
      "through": 1194,
      "we": 1195,
      "before": 1196,
      "##r": 1197,
      "just": 1198,
      "some": 1199,
      "##er": 1200,
      "years": 1201,
      "do": 1202,
      "New": 1203,
      "##t": 1204,
      "down": 1205,
      "between": 1206,
      "new": 1207,
      "now": 1208,
      "will": 1209,
      "three": 1210,
      "most": 1211,
      "On": 1212,
      "around": 1213,
      "year": 1214,
      "used": 1215,
      "such": 1216,
      "being": 1217,
      "well": 1218,
      "during": 1219,
      "They": 1220,
      "know": 1221,
      "against": 1222,
      "under": 1223,
      "later": 1224,
      "did": 1225,
      "part": 1226,
      "known": 1227,
      "off": 1228,
      "while": 1229,
      "His": 1230,
      "re": 1231,
      "...": 1232,
      "##l": 1233,
      "people": 1234,
      "until": 1235,
      "way": 1236,
      "American": 1237,
      "didn": 1238,
      "University": 1239,
      "your": 1240,
      "both": 1241,
      "many": 1242,
      "get": 1243,
      "United": 1244,
      "became": 1245,
      "head": 1246,
      "There": 1247,
      "second": 1248,
      "As": 1249,
      "work": 1250,
      "any": 1251,
      "But": 1252,
      "still": 1253,
      "again": 1254,
      "born": 1255,
      "even": 1256,
      "eyes": 1257,
      "After": 1258,
      "including": 1259,
      "de": 1260,
      "took": 1261,
      "And": 1262,
      "long": 1263,
      "team": 1264,
      "season": 1265,
      "family": 1266,
      "see": 1267,
      "right": 1268,
      "same": 1269,
      "called": 1270,
      "name": 1271,
      "because": 1272,
      "film": 1273,
      "don": 1274,
      "10": 1275,
      "found": 1276,
      "much": 1277,
      "school": 1278,
      "##es": 1279,
      "going": 1280,
      "won": 1281,
      "place": 1282,
      "away": 1283,
      "We": 1284,
      "day": 1285,
      "left": 1286,
      "John": 1287,
      "000": 1288,
      "hand": 1289,
      "since": 1290,
      "World": 1291,
      "these": 1292,
      "how": 1293,
      "make": 1294,
      "number": 1295,
      "each": 1296,
      "life": 1297,
      "area": 1298,
      "man": 1299,
      "four": 1300,
      "go": 1301,
      "No": 1302,
      "here": 1303,
      "very": 1304,
      "National": 1305,
      "##m": 1306,
      "played": 1307,
      "released": 1308,
      "never": 1309,
      "began": 1310,
      "States": 1311,
      "album": 1312,
      "home": 1313,
      "last": 1314,
      "too": 1315,
      "held": 1316,
      "several": 1317,
      "May": 1318,
      "own": 1319,
      "##on": 1320,
      "take": 1321,
      "end": 1322,
      "School": 1323,
      "##h": 1324,
      "ll": 1325,
      "series": 1326,
      "What": 1327,
      "want": 1328,
      "use": 1329,
      "another": 1330,
      "city": 1331,
      "When": 1332,
      "2010": 1333,
      "side": 1334,
      "At": 1335,
      "may": 1336,
      "That": 1337,
      "came": 1338,
      "face": 1339,
      "June": 1340,
      "think": 1341,
      "game": 1342,
      "those": 1343,
      "high": 1344,
      "March": 1345,
      "early": 1346,
      "September": 1347,
      "##al": 1348,
      "2011": 1349,
      "looked": 1350,
      "July": 1351,
      "state": 1352,
      "small": 1353,
      "thought": 1354,
      "went": 1355,
      "January": 1356,
      "October": 1357,
      "##u": 1358,
      "based": 1359,
      "August": 1360,
      "##us": 1361,
      "world": 1362,
      "good": 1363,
      "April": 1364,
      "York": 1365,
      "us": 1366,
      "12": 1367,
      "2012": 1368,
      "2008": 1369,
      "For": 1370,
      "2009": 1371,
      "group": 1372,
      "along": 1373,
      "few": 1374,
      "South": 1375,
      "little": 1376,
      "##k": 1377,
      "following": 1378,
      "November": 1379,
      "something": 1380,
      "2013": 1381,
      "December": 1382,
      "set": 1383,
      "2007": 1384,
      "old": 1385,
      "2006": 1386,
      "2014": 1387,
      "located": 1388,
      "##an": 1389,
      "music": 1390,
      "County": 1391,
      "City": 1392,
      "former": 1393,
      "##in": 1394,
      "room": 1395,
      "ve": 1396,
      "next": 1397,
      "All": 1398,
      "##man": 1399,
      "got": 1400,
      "father": 1401,
      "house": 1402,
      "##g": 1403,
      "body": 1404,
      "15": 1405,
      "20": 1406,
      "18": 1407,
      "started": 1408,
      "If": 1409,
      "2015": 1410,
      "town": 1411,
      "our": 1412,
      "line": 1413,
      "War": 1414,
      "large": 1415,
      "population": 1416,
      "named": 1417,
      "British": 1418,
      "company": 1419,
      "member": 1420,
      "five": 1421,
      "My": 1422,
      "single": 1423,
      "##en": 1424,
      "age": 1425,
      "State": 1426,
      "moved": 1427,
      "February": 1428,
      "11": 1429,
      "Her": 1430,
      "should": 1431,
      "century": 1432,
      "government": 1433,
      "built": 1434,
      "come": 1435,
      "best": 1436,
      "show": 1437,
      "However": 1438,
      "within": 1439,
      "look": 1440,
      "men": 1441,
      "door": 1442,
      "without": 1443,
      "need": 1444,
      "wasn": 1445,
      "2016": 1446,
      "water": 1447,
      "One": 1448,
      "system": 1449,
      "knew": 1450,
      "every": 1451,
      "died": 1452,
      "League": 1453,
      "turned": 1454,
      "asked": 1455,
      "North": 1456,
      "St": 1457,
      "wanted": 1458,
      "building": 1459,
      "received": 1460,
      "song": 1461,
      "served": 1462,
      "though": 1463,
      "felt": 1464,
      "##ia": 1465,
      "station": 1466,
      "band": 1467,
      "##ers": 1468,
      "local": 1469,
      "public": 1470,
      "himself": 1471,
      "different": 1472,
      "death": 1473,
      "say": 1474,
      "##1": 1475,
      "30": 1476,
      "##2": 1477,
      "2005": 1478,
      "16": 1479,
      "night": 1480,
      "behind": 1481,
      "children": 1482,
      "English": 1483,
      "members": 1484,
      "near": 1485,
      "saw": 1486,
      "together": 1487,
      "son": 1488,
      "14": 1489,
      "voice": 1490,
      "village": 1491,
      "13": 1492,
      "hands": 1493,
      "help": 1494,
      "##3": 1495,
      "due": 1496,
      "French": 1497,
      "London": 1498,
      "top": 1499,
      "told": 1500,
      "open": 1501,
      "published": 1502,
      "third": 1503,
      "2017": 1504,
      "play": 1505,
      "across": 1506,
      "During": 1507,
      "put": 1508,
      "final": 1509,
      "often": 1510,
      "include": 1511,
      "25": 1512,
      "##le": 1513,
      "main": 1514,
      "having": 1515,
      "2004": 1516,
      "once": 1517,
      "ever": 1518,
      "let": 1519,
      "book": 1520,
      "led": 1521,
      "gave": 1522,
      "late": 1523,
      "front": 1524,
      "find": 1525,
      "club": 1526,
      "##4": 1527,
      "German": 1528,
      "included": 1529,
      "species": 1530,
      "College": 1531,
      "form": 1532,
      "opened": 1533,
      "mother": 1534,
      "women": 1535,
      "enough": 1536,
      "West": 1537,
      "must": 1538,
      "2000": 1539,
      "power": 1540,
      "really": 1541,
      "17": 1542,
      "making": 1543,
      "half": 1544,
      "##6": 1545,
      "order": 1546,
      "might": 1547,
      "##is": 1548,
      "given": 1549,
      "million": 1550,
      "times": 1551,
      "days": 1552,
      "point": 1553,
      "full": 1554,
      "service": 1555,
      "With": 1556,
      "km": 1557,
      "major": 1558,
      "##7": 1559,
      "original": 1560,
      "become": 1561,
      "seen": 1562,
      "II": 1563,
      "north": 1564,
      "six": 1565,
      "##te": 1566,
      "love": 1567,
      "##0": 1568,
      "national": 1569,
      "International": 1570,
      "##5": 1571,
      "24": 1572,
      "So": 1573,
      "District": 1574,
      "lost": 1575,
      "run": 1576,
      "couldn": 1577,
      "career": 1578,
      "always": 1579,
      "##9": 1580,
      "2003": 1581,
      "##th": 1582,
      "country": 1583,
      "##z": 1584,
      "House": 1585,
      "air": 1586,
      "tell": 1587,
      "south": 1588,
      "worked": 1589,
      "woman": 1590,
      "player": 1591,
      "##A": 1592,
      "almost": 1593,
      "war": 1594,
      "River": 1595,
      "##ic": 1596,
      "married": 1597,
      "continued": 1598,
      "Then": 1599,
      "James": 1600,
      "close": 1601,
      "black": 1602,
      "short": 1603,
      "##8": 1604,
      "##na": 1605,
      "using": 1606,
      "history": 1607,
      "returned": 1608,
      "light": 1609,
      "car": 1610,
      "##ra": 1611,
      "sure": 1612,
      "William": 1613,
      "things": 1614,
      "General": 1615,
      "##ry": 1616,
      "2002": 1617,
      "better": 1618,
      "support": 1619,
      "100": 1620,
      "among": 1621,
      "From": 1622,
      "feet": 1623,
      "King": 1624,
      "anything": 1625,
      "21": 1626,
      "19": 1627,
      "established": 1628,
      "district": 1629,
      "2001": 1630,
      "feel": 1631,
      "great": 1632,
      "##ton": 1633,
      "level": 1634,
      "Cup": 1635,
      "These": 1636,
      "written": 1637,
      "games": 1638,
      "others": 1639,
      "already": 1640,
      "title": 1641,
      "story": 1642,
      "##p": 1643,
      "law": 1644,
      "thing": 1645,
      "US": 1646,
      "record": 1647,
      "role": 1648,
      "however": 1649,
      "By": 1650,
      "students": 1651,
      "England": 1652,
      "white": 1653,
      "control": 1654,
      "least": 1655,
      "inside": 1656,
      "land": 1657,
      "##C": 1658,
      "22": 1659,
      "give": 1660,
      "community": 1661,
      "hard": 1662,
      "##ie": 1663,
      "non": 1664,
      "##c": 1665,
      "produced": 1666,
      "George": 1667,
      "round": 1668,
      "period": 1669,
      "Park": 1670,
      "business": 1671,
      "various": 1672,
      "##ne": 1673,
      "does": 1674,
      "present": 1675,
      "wife": 1676,
      "far": 1677,
      "taken": 1678,
      "per": 1679,
      "reached": 1680,
      "David": 1681,
      "able": 1682,
      "version": 1683,
      "working": 1684,
      "young": 1685,
      "live": 1686,
      "created": 1687,
      "joined": 1688,
      "East": 1689,
      "living": 1690,
      "appeared": 1691,
      "case": 1692,
      "High": 1693,
      "done": 1694,
      "23": 1695,
      "important": 1696,
      "President": 1697,
      "Award": 1698,
      "France": 1699,
      "position": 1700,
      "office": 1701,
      "looking": 1702,
      "total": 1703,
      "general": 1704,
      "class": 1705,
      "To": 1706,
      "production": 1707,
      "##S": 1708,
      "football": 1709,
      "party": 1710,
      "brother": 1711,
      "keep": 1712,
      "mind": 1713,
      "free": 1714,
      "Street": 1715,
      "hair": 1716,
      "announced": 1717,
      "development": 1718,
      "either": 1719,
      "nothing": 1720,
      "moment": 1721,
      "Church": 1722,
      "followed": 1723,
      "wrote": 1724,
      "why": 1725,
      "India": 1726,
      "San": 1727,
      "election": 1728,
      "1999": 1729,
      "lead": 1730,
      "How": 1731,
      "##ch": 1732,
      "##rs": 1733,
      "words": 1734,
      "European": 1735,
      "course": 1736,
      "considered": 1737,
      "America": 1738,
      "arms": 1739,
      "Army": 1740,
      "political": 1741,
      "##la": 1742,
      "28": 1743,
      "26": 1744,
      "west": 1745,
      "east": 1746,
      "ground": 1747,
      "further": 1748,
      "church": 1749,
      "less": 1750,
      "site": 1751,
      "First": 1752,
      "Not": 1753,
      "Australia": 1754,
      "toward": 1755,
      "California": 1756,
      "##ness": 1757,
      "described": 1758,
      "works": 1759,
      "An": 1760,
      "Council": 1761,
      "heart": 1762,
      "past": 1763,
      "military": 1764,
      "27": 1765,
      "##or": 1766,
      "heard": 1767,
      "field": 1768,
      "human": 1769,
      "soon": 1770,
      "founded": 1771,
      "1998": 1772,
      "playing": 1773,
      "trying": 1774,
      "##x": 1775,
      "##ist": 1776,
      "##ta": 1777,
      "television": 1778,
      "mouth": 1779,
      "although": 1780,
      "taking": 1781,
      "win": 1782,
      "fire": 1783,
      "Division": 1784,
      "##ity": 1785,
      "Party": 1786,
      "Royal": 1787,
      "program": 1788,
      "Some": 1789,
      "Don": 1790,
      "Association": 1791,
      "According": 1792,
      "tried": 1793,
      "TV": 1794,
      "Paul": 1795,
      "outside": 1796,
      "daughter": 1797,
      "Best": 1798,
      "While": 1799,
      "someone": 1800,
      "match": 1801,
      "recorded": 1802,
      "Canada": 1803,
      "closed": 1804,
      "region": 1805,
      "Air": 1806,
      "above": 1807,
      "months": 1808,
      "elected": 1809,
      "##da": 1810,
      "##ian": 1811,
      "road": 1812,
      "##ar": 1813,
      "brought": 1814,
      "move": 1815,
      "1997": 1816,
      "leave": 1817,
      "##um": 1818,
      "Thomas": 1819,
      "1996": 1820,
      "am": 1821,
      "low": 1822,
      "Robert": 1823,
      "formed": 1824,
      "person": 1825,
      "services": 1826,
      "points": 1827,
      "Mr": 1828,
      "miles": 1829,
      "##b": 1830,
      "stop": 1831,
      "rest": 1832,
      "doing": 1833,
      "needed": 1834,
      "international": 1835,
      "release": 1836,
      "floor": 1837,
      "start": 1838,
      "sound": 1839,
      "call": 1840,
      "killed": 1841,
      "real": 1842,
      "dark": 1843,
      "research": 1844,
      "finished": 1845,
      "language": 1846,
      "Michael": 1847,
      "professional": 1848,
      "change": 1849,
      "sent": 1850,
      "50": 1851,
      "upon": 1852,
      "29": 1853,
      "track": 1854,
      "hit": 1855,
      "event": 1856,
      "2018": 1857,
      "term": 1858,
      "example": 1859,
      "Germany": 1860,
      "similar": 1861,
      "return": 1862,
      "##ism": 1863,
      "fact": 1864,
      "pulled": 1865,
      "stood": 1866,
      "says": 1867,
      "ran": 1868,
      "information": 1869,
      "yet": 1870,
      "result": 1871,
      "developed": 1872,
      "girl": 1873,
      "##re": 1874,
      "God": 1875,
      "1995": 1876,
      "areas": 1877,
      "signed": 1878,
      "decided": 1879,
      "##ment": 1880,
      "Company": 1881,
      "seemed": 1882,
      "##el": 1883,
      "co": 1884,
      "turn": 1885,
      "race": 1886,
      "common": 1887,
      "video": 1888,
      "Charles": 1889,
      "Indian": 1890,
      "##ation": 1891,
      "blood": 1892,
      "art": 1893,
      "red": 1894,
      "##able": 1895,
      "added": 1896,
      "rather": 1897,
      "1994": 1898,
      "met": 1899,
      "director": 1900,
      "addition": 1901,
      "design": 1902,
      "average": 1903,
      "minutes": 1904,
      "##ies": 1905,
      "##ted": 1906,
      "available": 1907,
      "bed": 1908,
      "coming": 1909,
      "friend": 1910,
      "idea": 1911,
      "kind": 1912,
      "Union": 1913,
      "Road": 1914,
      "remained": 1915,
      "##ting": 1916,
      "everything": 1917,
      "##ma": 1918,
      "running": 1919,
      "care": 1920,
      "finally": 1921,
      "Chinese": 1922,
      "appointed": 1923,
      "1992": 1924,
      "Australian": 1925,
      "##ley": 1926,
      "popular": 1927,
      "mean": 1928,
      "teams": 1929,
      "probably": 1930,
      "##land": 1931,
      "usually": 1932,
      "project": 1933,
      "social": 1934,
      "Championship": 1935,
      "possible": 1936,
      "word": 1937,
      "Russian": 1938,
      "instead": 1939,
      "mi": 1940,
      "herself": 1941,
      "##T": 1942,
      "Peter": 1943,
      "Hall": 1944,
      "Center": 1945,
      "seat": 1946,
      "style": 1947,
      "money": 1948,
      "1993": 1949,
      "else": 1950,
      "Department": 1951,
      "table": 1952,
      "Music": 1953,
      "current": 1954,
      "31": 1955,
      "features": 1956,
      "special": 1957,
      "events": 1958,
      "character": 1959,
      "Two": 1960,
      "square": 1961,
      "sold": 1962,
      "debut": 1963,
      "##v": 1964,
      "process": 1965,
      "Although": 1966,
      "Since": 1967,
      "##ka": 1968,
      "40": 1969,
      "Central": 1970,
      "currently": 1971,
      "education": 1972,
      "placed": 1973,
      "lot": 1974,
      "China": 1975,
      "quickly": 1976,
      "forward": 1977,
      "seven": 1978,
      "##ling": 1979,
      "Europe": 1980,
      "arm": 1981,
      "performed": 1982,
      "Japanese": 1983,
      "1991": 1984,
      "Henry": 1985,
      "Now": 1986,
      "Dr": 1987,
      "##ion": 1988,
      "week": 1989,
      "Group": 1990,
      "myself": 1991,
      "big": 1992,
      "UK": 1993,
      "Washington": 1994,
      "ten": 1995,
      "deep": 1996,
      "1990": 1997,
      "Club": 1998,
      "Japan": 1999,
      "space": 2000,
      "La": 2001,
      "directed": 2002,
      "smile": 2003,
      "episode": 2004,
      "hours": 2005,
      "whole": 2006,
      "##de": 2007,
      "##less": 2008,
      "Why": 2009,
      "wouldn": 2010,
      "designed": 2011,
      "strong": 2012,
      "training": 2013,
      "changed": 2014,
      "Society": 2015,
      "stage": 2016,
      "involved": 2017,
      "hadn": 2018,
      "towards": 2019,
      "leading": 2020,
      "police": 2021,
      "eight": 2022,
      "kept": 2023,
      "Institute": 2024,
      "study": 2025,
      "largest": 2026,
      "child": 2027,
      "eventually": 2028,
      "private": 2029,
      "modern": 2030,
      "Court": 2031,
      "throughout": 2032,
      "getting": 2033,
      "originally": 2034,
      "attack": 2035,
      "##E": 2036,
      "talk": 2037,
      "Great": 2038,
      "longer": 2039,
      "songs": 2040,
      "alone": 2041,
      "##ine": 2042,
      "wide": 2043,
      "dead": 2044,
      "walked": 2045,
      "shot": 2046,
      "##ri": 2047,
      "Oh": 2048,
      "force": 2049,
      "##st": 2050,
      "Art": 2051,
      "today": 2052,
      "friends": 2053,
      "Island": 2054,
      "Richard": 2055,
      "1989": 2056,
      "center": 2057,
      "construction": 2058,
      "believe": 2059,
      "size": 2060,
      "White": 2061,
      "ship": 2062,
      "completed": 2063,
      "##B": 2064,
      "gone": 2065,
      "Just": 2066,
      "rock": 2067,
      "sat": 2068,
      "##R": 2069,
      "radio": 2070,
      "below": 2071,
      "entire": 2072,
      "families": 2073,
      "league": 2074,
      "includes": 2075,
      "type": 2076,
      "lived": 2077,
      "official": 2078,
      "range": 2079,
      "hold": 2080,
      "featured": 2081,
      "Most": 2082,
      "##ter": 2083,
      "president": 2084,
      "passed": 2085,
      "means": 2086,
      "##f": 2087,
      "forces": 2088,
      "lips": 2089,
      "Mary": 2090,
      "Do": 2091,
      "guitar": 2092,
      "##ce": 2093,
      "food": 2094,
      "wall": 2095,
      "Of": 2096,
      "spent": 2097,
      "Its": 2098,
      "performance": 2099,
      "hear": 2100,
      "##P": 2101,
      "Western": 2102,
      "reported": 2103,
      "sister": 2104,
      "##et": 2105,
      "morning": 2106,
      "##M": 2107,
      "especially": 2108,
      "##ive": 2109,
      "Minister": 2110,
      "itself": 2111,
      "post": 2112,
      "bit": 2113,
      "groups": 2114,
      "1988": 2115,
      "##tion": 2116,
      "Black": 2117,
      "##ng": 2118,
      "Well": 2119,
      "raised": 2120,
      "sometimes": 2121,
      "Canadian": 2122,
      "Paris": 2123,
      "Spanish": 2124,
      "replaced": 2125,
      "schools": 2126,
      "Academy": 2127,
      "leaving": 2128,
      "central": 2129,
      "female": 2130,
      "Christian": 2131,
      "Jack": 2132,
      "whose": 2133,
      "college": 2134,
      "onto": 2135,
      "provided": 2136,
      "##D": 2137,
      "##ville": 2138,
      "players": 2139,
      "actually": 2140,
      "stopped": 2141,
      "##son": 2142,
      "Museum": 2143,
      "doesn": 2144,
      "##ts": 2145,
      "books": 2146,
      "fight": 2147,
      "allowed": 2148,
      "##ur": 2149,
      "beginning": 2150,
      "Records": 2151,
      "awarded": 2152,
      "parents": 2153,
      "coach": 2154,
      "##os": 2155,
      "Red": 2156,
      "saying": 2157,
      "##ck": 2158,
      "Smith": 2159,
      "Yes": 2160,
      "Lake": 2161,
      "##L": 2162,
      "aircraft": 2163,
      "1987": 2164,
      "##ble": 2165,
      "previous": 2166,
      "ft": 2167,
      "action": 2168,
      "Italian": 2169,
      "African": 2170,
      "happened": 2171,
      "vocals": 2172,
      "Act": 2173,
      "future": 2174,
      "court": 2175,
      "##ge": 2176,
      "1986": 2177,
      "degree": 2178,
      "phone": 2179,
      "##ro": 2180,
      "Is": 2181,
      "countries": 2182,
      "winning": 2183,
      "breath": 2184,
      "Love": 2185,
      "river": 2186,
      "matter": 2187,
      "Lord": 2188,
      "Other": 2189,
      "list": 2190,
      "self": 2191,
      "parts": 2192,
      "##ate": 2193,
      "provide": 2194,
      "cut": 2195,
      "shows": 2196,
      "plan": 2197,
      "1st": 2198,
      "interest": 2199,
      "##ized": 2200,
      "Africa": 2201,
      "stated": 2202,
      "Sir": 2203,
      "fell": 2204,
      "owned": 2205,
      "earlier": 2206,
      "ended": 2207,
      "competition": 2208,
      "attention": 2209,
      "1985": 2210,
      "lower": 2211,
      "nearly": 2212,
      "bad": 2213,
      "older": 2214,
      "stay": 2215,
      "Saint": 2216,
      "##se": 2217,
      "certain": 2218,
      "1984": 2219,
      "fingers": 2220,
      "blue": 2221,
      "try": 2222,
      "fourth": 2223,
      "Grand": 2224,
      "##as": 2225,
      "king": 2226,
      "##nt": 2227,
      "makes": 2228,
      "chest": 2229,
      "movement": 2230,
      "states": 2231,
      "moving": 2232,
      "data": 2233,
      "introduced": 2234,
      "model": 2235,
      "date": 2236,
      "section": 2237,
      "Los": 2238,
      "deal": 2239,
      "##I": 2240,
      "skin": 2241,
      "entered": 2242,
      "middle": 2243,
      "success": 2244,
      "Texas": 2245,
      "##w": 2246,
      "summer": 2247,
      "island": 2248,
      "##N": 2249,
      "Republic": 2250,
      "length": 2251,
      "husband": 2252,
      "1980": 2253,
      "##ey": 2254,
      "reason": 2255,
      "anyone": 2256,
      "forced": 2257,
      "via": 2258,
      "base": 2259,
      "500": 2260,
      "job": 2261,
      "covered": 2262,
      "Festival": 2263,
      "Roman": 2264,
      "successful": 2265,
      "rights": 2266,
      "cover": 2267,
      "Man": 2268,
      "writing": 2269,
      "Ireland": 2270,
      "##F": 2271,
      "related": 2272,
      "goal": 2273,
      "takes": 2274,
      "buildings": 2275,
      "true": 2276,
      "weeks": 2277,
      "1983": 2278,
      "Because": 2279,
      "opening": 2280,
      "novel": 2281,
      "ISBN": 2282,
      "meet": 2283,
      "gold": 2284,
      "##ous": 2285,
      "mid": 2286,
      "km²": 2287,
      "standing": 2288,
      "Football": 2289,
      "Chicago": 2290,
      "shook": 2291,
      "whom": 2292,
      "##ki": 2293,
      "1982": 2294,
      "Day": 2295,
      "feeling": 2296,
      "scored": 2297,
      "boy": 2298,
      "higher": 2299,
      "Force": 2300,
      "leader": 2301,
      "heavy": 2302,
      "fall": 2303,
      "question": 2304,
      "sense": 2305,
      "army": 2306,
      "Second": 2307,
      "energy": 2308,
      "meeting": 2309,
      "themselves": 2310,
      "kill": 2311,
      "##am": 2312,
      "board": 2313,
      "census": 2314,
      "##ya": 2315,
      "##ns": 2316,
      "mine": 2317,
      "meant": 2318,
      "market": 2319,
      "required": 2320,
      "battle": 2321,
      "campaign": 2322,
      "attended": 2323,
      "approximately": 2324,
      "Kingdom": 2325,
      "runs": 2326,
      "active": 2327,
      "##ha": 2328,
      "contract": 2329,
      "clear": 2330,
      "previously": 2331,
      "health": 2332,
      "1979": 2333,
      "Arts": 2334,
      "complete": 2335,
      "Catholic": 2336,
      "couple": 2337,
      "units": 2338,
      "##ll": 2339,
      "##ty": 2340,
      "Committee": 2341,
      "shoulder": 2342,
      "sea": 2343,
      "systems": 2344,
      "listed": 2345,
      "##O": 2346,
      "caught": 2347,
      "tournament": 2348,
      "##G": 2349,
      "northern": 2350,
      "author": 2351,
      "Film": 2352,
      "Your": 2353,
      "##men": 2354,
      "holding": 2355,
      "offered": 2356,
      "personal": 2357,
      "1981": 2358,
      "southern": 2359,
      "artist": 2360,
      "traditional": 2361,
      "studio": 2362,
      "200": 2363,
      "capital": 2364,
      "##ful": 2365,
      "regular": 2366,
      "ask": 2367,
      "giving": 2368,
      "organization": 2369,
      "month": 2370,
      "news": 2371,
      "Are": 2372,
      "read": 2373,
      "managed": 2374,
      "helped": 2375,
      "studied": 2376,
      "student": 2377,
      "defeated": 2378,
      "natural": 2379,
      "industry": 2380,
      "Year": 2381,
      "noted": 2382,
      "decision": 2383,
      "Government": 2384,
      "quite": 2385,
      "##id": 2386,
      "smiled": 2387,
      "1972": 2388,
      "Maybe": 2389,
      "tracks": 2390,
      "##ke": 2391,
      "Mark": 2392,
      "al": 2393,
      "media": 2394,
      "engine": 2395,
      "hour": 2396,
      "Their": 2397,
      "relationship": 2398,
      "plays": 2399,
      "property": 2400,
      "structure": 2401,
      "1976": 2402,
      "ago": 2403,
      "Hill": 2404,
      "Martin": 2405,
      "1978": 2406,
      "ready": 2407,
      "Many": 2408,
      "Like": 2409,
      "Bay": 2410,
      "immediately": 2411,
      "generally": 2412,
      "Italy": 2413,
      "Greek": 2414,
      "practice": 2415,
      "caused": 2416,
      "division": 2417,
      "significant": 2418,
      "Joseph": 2419,
      "speed": 2420,
      "Let": 2421,
      "thinking": 2422,
      "completely": 2423,
      "1974": 2424,
      "primary": 2425,
      "mostly": 2426,
      "##field": 2427,
      "##K": 2428,
      "1975": 2429,
      "##to": 2430,
      "Even": 2431,
      "writer": 2432,
      "##led": 2433,
      "dropped": 2434,
      "magazine": 2435,
      "collection": 2436,
      "understand": 2437,
      "route": 2438,
      "highest": 2439,
      "particular": 2440,
      "films": 2441,
      "lines": 2442,
      "network": 2443,
      "Science": 2444,
      "loss": 2445,
      "carried": 2446,
      "direction": 2447,
      "green": 2448,
      "1977": 2449,
      "location": 2450,
      "producer": 2451,
      "according": 2452,
      "Women": 2453,
      "Queen": 2454,
      "neck": 2455,
      "thus": 2456,
      "independent": 2457,
      "view": 2458,
      "1970": 2459,
      "Angeles": 2460,
      "Soviet": 2461,
      "distance": 2462,
      "problem": 2463,
      "Board": 2464,
      "tour": 2465,
      "western": 2466,
      "income": 2467,
      "appearance": 2468,
      "access": 2469,
      "Mexico": 2470,
      "nodded": 2471,
      "street": 2472,
      "surface": 2473,
      "arrived": 2474,
      "believed": 2475,
      "Old": 2476,
      "1968": 2477,
      "1973": 2478,
      "becoming": 2479,
      "whether": 2480,
      "1945": 2481,
      "figure": 2482,
      "singer": 2483,
      "stand": 2484,
      "Following": 2485,
      "issue": 2486,
      "window": 2487,
      "wrong": 2488,
      "pain": 2489,
      "everyone": 2490,
      "lives": 2491,
      "issues": 2492,
      "park": 2493,
      "slowly": 2494,
      "la": 2495,
      "act": 2496,
      "##va": 2497,
      "bring": 2498,
      "Lee": 2499,
      "operations": 2500,
      "key": 2501,
      "comes": 2502,
      "fine": 2503,
      "cold": 2504,
      "famous": 2505,
      "Navy": 2506,
      "1971": 2507,
      "Me": 2508,
      "additional": 2509,
      "individual": 2510,
      "##ner": 2511,
      "Zealand": 2512,
      "goals": 2513,
      "county": 2514,
      "contains": 2515,
      "Service": 2516,
      "minute": 2517,
      "2nd": 2518,
      "reach": 2519,
      "talking": 2520,
      "particularly": 2521,
      "##ham": 2522,
      "movie": 2523,
      "Director": 2524,
      "glass": 2525,
      "paper": 2526,
      "studies": 2527,
      "##co": 2528,
      "railway": 2529,
      "standard": 2530,
      "Education": 2531,
      "45": 2532,
      "represented": 2533,
      "Chief": 2534,
      "Louis": 2535,
      "launched": 2536,
      "Star": 2537,
      "terms": 2538,
      "60": 2539,
      "1969": 2540,
      "experience": 2541,
      "watched": 2542,
      "Another": 2543,
      "Press": 2544,
      "Tom": 2545,
      "staff": 2546,
      "starting": 2547,
      "subject": 2548,
      "break": 2549,
      "Virginia": 2550,
      "nine": 2551,
      "eye": 2552,
      "##age": 2553,
      "evidence": 2554,
      "foot": 2555,
      "##est": 2556,
      "companies": 2557,
      "Prince": 2558,
      "##V": 2559,
      "gun": 2560,
      "create": 2561,
      "Big": 2562,
      "People": 2563,
      "guy": 2564,
      "Green": 2565,
      "simply": 2566,
      "numerous": 2567,
      "##line": 2568,
      "increased": 2569,
      "twenty": 2570,
      "##ga": 2571,
      "##do": 2572,
      "1967": 2573,
      "award": 2574,
      "officer": 2575,
      "stone": 2576,
      "Before": 2577,
      "material": 2578,
      "Northern": 2579,
      "grew": 2580,
      "male": 2581,
      "plant": 2582,
      "Life": 2583,
      "legs": 2584,
      "step": 2585,
      "Al": 2586,
      "unit": 2587,
      "35": 2588,
      "except": 2589,
      "answer": 2590,
      "##U": 2591,
      "report": 2592,
      "response": 2593,
      "Edward": 2594,
      "commercial": 2595,
      "edition": 2596,
      "trade": 2597,
      "science": 2598,
      "##ca": 2599,
      "Irish": 2600,
      "Law": 2601,
      "shown": 2602,
      "rate": 2603,
      "failed": 2604,
      "##ni": 2605,
      "remains": 2606,
      "changes": 2607,
      "mm": 2608,
      "limited": 2609,
      "larger": 2610,
      "Later": 2611,
      "cause": 2612,
      "waiting": 2613,
      "Time": 2614,
      "##wood": 2615,
      "cost": 2616,
      "Bill": 2617,
      "manager": 2618,
      "activities": 2619,
      "likely": 2620,
      "allow": 2621,
      "operated": 2622,
      "retired": 2623,
      "##ping": 2624,
      "65": 2625,
      "directly": 2626,
      "Who": 2627,
      "associated": 2628,
      "effect": 2629,
      "hell": 2630,
      "Florida": 2631,
      "straight": 2632,
      "hot": 2633,
      "Valley": 2634,
      "management": 2635,
      "girls": 2636,
      "expected": 2637,
      "eastern": 2638,
      "Mike": 2639,
      "chance": 2640,
      "cast": 2641,
      "centre": 2642,
      "chair": 2643,
      "hurt": 2644,
      "problems": 2645,
      "##li": 2646,
      "walk": 2647,
      "programs": 2648,
      "Team": 2649,
      "characters": 2650,
      "Battle": 2651,
      "edge": 2652,
      "pay": 2653,
      "maybe": 2654,
      "corner": 2655,
      "majority": 2656,
      "medical": 2657,
      "Joe": 2658,
      "Summer": 2659,
      "##io": 2660,
      "attempt": 2661,
      "Pacific": 2662,
      "command": 2663,
      "Radio": 2664,
      "##by": 2665,
      "names": 2666,
      "municipality": 2667,
      "1964": 2668,
      "train": 2669,
      "economic": 2670,
      "Brown": 2671,
      "feature": 2672,
      "sex": 2673,
      "source": 2674,
      "agreed": 2675,
      "remember": 2676,
      "Three": 2677,
      "1966": 2678,
      "1965": 2679,
      "Pennsylvania": 2680,
      "victory": 2681,
      "senior": 2682,
      "annual": 2683,
      "III": 2684,
      "Southern": 2685,
      "results": 2686,
      "Sam": 2687,
      "serving": 2688,
      "religious": 2689,
      "Jones": 2690,
      "appears": 2691,
      "##der": 2692,
      "despite": 2693,
      "claimed": 2694,
      "Both": 2695,
      "musical": 2696,
      "matches": 2697,
      "fast": 2698,
      "security": 2699,
      "selected": 2700,
      "Young": 2701,
      "double": 2702,
      "complex": 2703,
      "hospital": 2704,
      "chief": 2705,
      "Times": 2706,
      "##ve": 2707,
      "Championships": 2708,
      "filled": 2709,
      "Public": 2710,
      "Despite": 2711,
      "beautiful": 2712,
      "Research": 2713,
      "plans": 2714,
      "Province": 2715,
      "##ally": 2716,
      "Wales": 2717,
      "##ko": 2718,
      "artists": 2719,
      "metal": 2720,
      "nearby": 2721,
      "Spain": 2722,
      "##il": 2723,
      "32": 2724,
      "houses": 2725,
      "supported": 2726,
      "piece": 2727,
      "##no": 2728,
      "stared": 2729,
      "recording": 2730,
      "nature": 2731,
      "legal": 2732,
      "Russia": 2733,
      "##ization": 2734,
      "remaining": 2735,
      "looks": 2736,
      "##sh": 2737,
      "bridge": 2738,
      "closer": 2739,
      "cases": 2740,
      "scene": 2741,
      "marriage": 2742,
      "Little": 2743,
      "##é": 2744,
      "uses": 2745,
      "Earth": 2746,
      "specific": 2747,
      "Frank": 2748,
      "theory": 2749,
      "Good": 2750,
      "discovered": 2751,
      "referred": 2752,
      "bass": 2753,
      "culture": 2754,
      "university": 2755,
      "presented": 2756,
      "Congress": 2757,
      "##go": 2758,
      "metres": 2759,
      "continue": 2760,
      "1960": 2761,
      "isn": 2762,
      "Awards": 2763,
      "meaning": 2764,
      "cell": 2765,
      "composed": 2766,
      "separate": 2767,
      "Series": 2768,
      "forms": 2769,
      "Blue": 2770,
      "cross": 2771,
      "##tor": 2772,
      "increase": 2773,
      "test": 2774,
      "computer": 2775,
      "slightly": 2776,
      "Where": 2777,
      "Jewish": 2778,
      "Town": 2779,
      "tree": 2780,
      "status": 2781,
      "1944": 2782,
      "variety": 2783,
      "responsible": 2784,
      "pretty": 2785,
      "initially": 2786,
      "##way": 2787,
      "realized": 2788,
      "pass": 2789,
      "provides": 2790,
      "Captain": 2791,
      "Alexander": 2792,
      "recent": 2793,
      "score": 2794,
      "broke": 2795,
      "Scott": 2796,
      "drive": 2797,
      "financial": 2798,
      "showed": 2799,
      "Line": 2800,
      "stories": 2801,
      "ordered": 2802,
      "soldiers": 2803,
      "genus": 2804,
      "operation": 2805,
      "gaze": 2806,
      "sitting": 2807,
      "society": 2808,
      "Only": 2809,
      "hope": 2810,
      "actor": 2811,
      "follow": 2812,
      "Empire": 2813,
      "Yeah": 2814,
      "technology": 2815,
      "happy": 2816,
      "focus": 2817,
      "policy": 2818,
      "spread": 2819,
      "situation": 2820,
      "##ford": 2821,
      "##ba": 2822,
      "Mrs": 2823,
      "watch": 2824,
      "Can": 2825,
      "1963": 2826,
      "Commission": 2827,
      "touch": 2828,
      "earned": 2829,
      "troops": 2830,
      "Under": 2831,
      "1962": 2832,
      "individuals": 2833,
      "cannot": 2834,
      "19th": 2835,
      "##lin": 2836,
      "mile": 2837,
      "expression": 2838,
      "exactly": 2839,
      "suddenly": 2840,
      "weight": 2841,
      "dance": 2842,
      "stepped": 2843,
      "places": 2844,
      "appear": 2845,
      "difficult": 2846,
      "Railway": 2847,
      "anti": 2848,
      "numbers": 2849,
      "kilometres": 2850,
      "star": 2851,
      "##ier": 2852,
      "department": 2853,
      "ice": 2854,
      "Britain": 2855,
      "removed": 2856,
      "Once": 2857,
      "##lo": 2858,
      "Boston": 2859,
      "value": 2860,
      "##ant": 2861,
      "mission": 2862,
      "trees": 2863,
      "Order": 2864,
      "sports": 2865,
      "join": 2866,
      "serve": 2867,
      "Major": 2868,
      "poor": 2869,
      "Poland": 2870,
      "mainly": 2871,
      "Theatre": 2872,
      "pushed": 2873,
      "Station": 2874,
      "##it": 2875,
      "Lady": 2876,
      "federal": 2877,
      "silver": 2878,
      "##ler": 2879,
      "foreign": 2880,
      "##ard": 2881,
      "Eastern": 2882,
      "##den": 2883,
      "box": 2884,
      "hall": 2885,
      "subsequently": 2886,
      "lies": 2887,
      "acquired": 2888,
      "1942": 2889,
      "ancient": 2890,
      "CD": 2891,
      "History": 2892,
      "Jean": 2893,
      "beyond": 2894,
      "##ger": 2895,
      "El": 2896,
      "##les": 2897,
      "growing": 2898,
      "championship": 2899,
      "native": 2900,
      "Parliament": 2901,
      "Williams": 2902,
      "watching": 2903,
      "direct": 2904,
      "overall": 2905,
      "offer": 2906,
      "Also": 2907,
      "80": 2908,
      "Secretary": 2909,
      "spoke": 2910,
      "Latin": 2911,
      "ability": 2912,
      "##ated": 2913,
      "safe": 2914,
      "presence": 2915,
      "##ial": 2916,
      "headed": 2917,
      "regional": 2918,
      "planned": 2919,
      "1961": 2920,
      "Johnson": 2921,
      "throat": 2922,
      "consists": 2923,
      "##W": 2924,
      "extended": 2925,
      "Or": 2926,
      "bar": 2927,
      "walls": 2928,
      "Chris": 2929,
      "stations": 2930,
      "politician": 2931,
      "Olympics": 2932,
      "influence": 2933,
      "share": 2934,
      "fighting": 2935,
      "speak": 2936,
      "hundred": 2937,
      "Carolina": 2938,
      "die": 2939,
      "stars": 2940,
      "##tic": 2941,
      "color": 2942,
      "Chapter": 2943,
      "##ish": 2944,
      "fear": 2945,
      "sleep": 2946,
      "goes": 2947,
      "Francisco": 2948,
      "oil": 2949,
      "Bank": 2950,
      "sign": 2951,
      "physical": 2952,
      "##berg": 2953,
      "Dutch": 2954,
      "seasons": 2955,
      "##rd": 2956,
      "Games": 2957,
      "Governor": 2958,
      "sorry": 2959,
      "lack": 2960,
      "Centre": 2961,
      "memory": 2962,
      "baby": 2963,
      "smaller": 2964,
      "charge": 2965,
      "Did": 2966,
      "multiple": 2967,
      "ships": 2968,
      "shirt": 2969,
      "Assembly": 2970,
      "amount": 2971,
      "leaves": 2972,
      "3rd": 2973,
      "Foundation": 2974,
      "conditions": 2975,
      "1943": 2976,
      "Rock": 2977,
      "Democratic": 2978,
      "Daniel": 2979,
      "##at": 2980,
      "winner": 2981,
      "products": 2982,
      "##ina": 2983,
      "store": 2984,
      "latter": 2985,
      "Professor": 2986,
      "civil": 2987,
      "prior": 2988,
      "host": 2989,
      "1956": 2990,
      "soft": 2991,
      "vote": 2992,
      "needs": 2993,
      "Each": 2994,
      "rules": 2995,
      "1958": 2996,
      "pressure": 2997,
      "letter": 2998,
      "normal": 2999,
      "proposed": 3000,
      "levels": 3001,
      "records": 3002,
      "1959": 3003,
      "paid": 3004,
      "intended": 3005,
      "Victoria": 3006,
      "purpose": 3007,
      "okay": 3008,
      "historical": 3009,
      "issued": 3010,
      "1980s": 3011,
      "broadcast": 3012,
      "rule": 3013,
      "simple": 3014,
      "picked": 3015,
      "firm": 3016,
      "Sea": 3017,
      "1941": 3018,
      "Elizabeth": 3019,
      "1940": 3020,
      "serious": 3021,
      "featuring": 3022,
      "highly": 3023,
      "graduated": 3024,
      "mentioned": 3025,
      "choice": 3026,
      "1948": 3027,
      "replied": 3028,
      "percent": 3029,
      "Scotland": 3030,
      "##hi": 3031,
      "females": 3032,
      "constructed": 3033,
      "1957": 3034,
      "settled": 3035,
      "Steve": 3036,
      "recognized": 3037,
      "cities": 3038,
      "crew": 3039,
      "glanced": 3040,
      "kiss": 3041,
      "competed": 3042,
      "flight": 3043,
      "knowledge": 3044,
      "editor": 3045,
      "More": 3046,
      "Conference": 3047,
      "##H": 3048,
      "fifth": 3049,
      "elements": 3050,
      "##ee": 3051,
      "##tes": 3052,
      "function": 3053,
      "newspaper": 3054,
      "recently": 3055,
      "Miss": 3056,
      "cultural": 3057,
      "brown": 3058,
      "twice": 3059,
      "Office": 3060,
      "1939": 3061,
      "truth": 3062,
      "Creek": 3063,
[...]
